{
  "token_to_id": {
    "<pad>": 0,
    "<unk>": 1,
    "<bos>": 2,
    "<eos>": 3,
    "!": 4,
    "!</w>": 5,
    "\"": 6,
    "$": 7,
    "&": 8,
    "'": 9,
    "'</w>": 10,
    "(": 11,
    ")": 12,
    ",": 13,
    ",</w>": 14,
    "-": 15,
    "-</w>": 16,
    ".": 17,
    ".</w>": 18,
    "2": 19,
    "3": 20,
    "4": 21,
    ":": 22,
    ":</w>": 23,
    ";": 24,
    ";</w>": 25,
    "</w>": 26,
    "=": 27,
    "=</w>": 28,
    "?": 29,
    "?</w>": 30,
    "A": 31,
    "A</w>": 32,
    "AR": 33,
    "Against</w>": 34,
    "Ah</w>": 35,
    "Al": 36,
    "Alas</w>": 37,
    "All</w>": 38,
    "An": 39,
    "An</w>": 40,
    "And</w>": 41,
    "Ang": 42,
    "Angel": 43,
    "Angelo</w>": 44,
    "Are</w>": 45,
    "As</w>": 46,
    "At</w>": 47,
    "Au": 48,
    "Aufidi": 49,
    "Aufidius</w>": 50,
    "Away</w>": 51,
    "Ay</w>": 52,
    "B": 53,
    "Be": 54,
    "Be</w>": 55,
    "Because</w>": 56,
    "Before</w>": 57,
    "Being</w>": 58,
    "Bes": 59,
    "Bo": 60,
    "Bohe": 61,
    "Bohemi": 62,
    "Bol": 63,
    "Boling": 64,
    "Bolingbroke</w>": 65,
    "Bu": 66,
    "Buck": 67,
    "Buckingham</w>": 68,
    "But</w>": 69,
    "By</w>": 70,
    "C": 71,
    "Ca": 72,
    "Call</w>": 73,
    "Cami": 74,
    "Camillo</w>": 75,
    "Can</w>": 76,
    "Ch": 77,
    "Clar": 78,
    "Clarence</w>": 79,
    "Clau": 80,
    "Claudi": 81,
    "Claudio</w>": 82,
    "Clif": 83,
    "Clifford</w>": 84,
    "Co": 85,
    "Come</w>": 86,
    "Con": 87,
    "Cori": 88,
    "Coriol": 89,
    "Coriolan": 90,
    "Coriolanus</w>": 91,
    "D": 92,
    "Di": 93,
    "Did</w>": 94,
    "Do": 95,
    "Do</w>": 96,
    "Du": 97,
    "Duke</w>": 98,
    "E": 99,
    "EN": 100,
    "Ed": 101,
    "Edward</w>": 102,
    "En": 103,
    "Eng": 104,
    "England</w>": 105,
    "Ere</w>": 106,
    "Even</w>": 107,
    "Ex": 108,
    "F": 109,
    "Fa": 110,
    "Farewell</w>": 111,
    "First</w>": 112,
    "For": 113,
    "For</w>": 114,
    "France</w>": 115,
    "From</w>": 116,
    "G": 117,
    "Ge": 118,
    "George</w>": 119,
    "Give</w>": 120,
    "Glou": 121,
    "Gloucester</w>": 122,
    "Go</w>": 123,
    "God</w>": 124,
    "Good</w>": 125,
    "Gre": 126,
    "H": 127,
    "Ha": 128,
    "Had</w>": 129,
    "Har": 130,
    "Hastings</w>": 131,
    "Hath</w>": 132,
    "Have</w>": 133,
    "He</w>": 134,
    "Hen": 135,
    "Henry</w>": 136,
    "Her": 137,
    "Her</w>": 138,
    "Here": 139,
    "Here</w>": 140,
    "Hereford</w>": 141,
    "His</w>": 142,
    "How</w>": 143,
    "I": 144,
    "I</w>": 145,
    "If</w>": 146,
    "In": 147,
    "In</w>": 148,
    "Is</w>": 149,
    "Isa": 150,
    "It</w>": 151,
    "J": 152,
    "Jo": 153,
    "Ju": 154,
    "Juli": 155,
    "Juliet</w>": 156,
    "K": 157,
    "King</w>": 158,
    "L": 159,
    "La": 160,
    "Lady</w>": 161,
    "Lan": 162,
    "Lanca": 163,
    "Lancaster</w>": 164,
    "Lest</w>": 165,
    "Let</w>": 166,
    "Li": 167,
    "Like</w>": 168,
    "Lo": 169,
    "Lon": 170,
    "London</w>": 171,
    "Look</w>": 172,
    "Lord</w>": 173,
    "Lu": 174,
    "M": 175,
    "Ma": 176,
    "Mad": 177,
    "Madam</w>": 178,
    "Make</w>": 179,
    "Mar": 180,
    "Marci": 181,
    "Marcius</w>": 182,
    "Margar": 183,
    "Margaret</w>": 184,
    "Marry</w>": 185,
    "Master</w>": 186,
    "May</w>": 187,
    "Me": 188,
    "Mer": 189,
    "Mo": 190,
    "Mon": 191,
    "Monta": 192,
    "Montague</w>": 193,
    "More</w>": 194,
    "Most</w>": 195,
    "Mu": 196,
    "Must</w>": 197,
    "My</w>": 198,
    "N": 199,
    "Nay</w>": 200,
    "No</w>": 201,
    "Nor": 202,
    "Nor</w>": 203,
    "Norfolk</w>": 204,
    "North": 205,
    "Northumb": 206,
    "Northumber": 207,
    "Not</w>": 208,
    "Now</w>": 209,
    "O": 210,
    "O</w>": 211,
    "OR": 212,
    "Of</w>": 213,
    "On": 214,
    "On</w>": 215,
    "One</w>": 216,
    "Or</w>": 217,
    "Our</w>": 218,
    "Ox": 219,
    "Oxford</w>": 220,
    "P": 221,
    "Par": 222,
    "Paris</w>": 223,
    "Pe": 224,
    "Per": 225,
    "Po": 226,
    "Pomp": 227,
    "Pompey</w>": 228,
    "Pray</w>": 229,
    "Pro": 230,
    "Q": 231,
    "R": 232,
    "Re": 233,
    "Ri": 234,
    "Rich": 235,
    "Richard</w>": 236,
    "Richmon": 237,
    "Richmond</w>": 238,
    "Ro": 239,
    "Rome": 240,
    "Rome</w>": 241,
    "Romeo</w>": 242,
    "Ru": 243,
    "S": 244,
    "S</w>": 245,
    "Sa": 246,
    "Saint</w>": 247,
    "Say</w>": 248,
    "Se": 249,
    "See</w>": 250,
    "Sh": 251,
    "Sha": 252,
    "Shall</w>": 253,
    "She</w>": 254,
    "Should</w>": 255,
    "Si": 256,
    "Since</w>": 257,
    "Sir</w>": 258,
    "So": 259,
    "So</w>": 260,
    "Some</w>": 261,
    "Sp": 262,
    "Speak</w>": 263,
    "St": 264,
    "Su": 265,
    "Such</w>": 266,
    "T": 267,
    "Take</w>": 268,
    "Tell</w>": 269,
    "Th": 270,
    "Than</w>": 271,
    "That</w>": 272,
    "The": 273,
    "The</w>": 274,
    "Their</w>": 275,
    "Then</w>": 276,
    "There</w>": 277,
    "Therefore</w>": 278,
    "These</w>": 279,
    "They</w>": 280,
    "This</w>": 281,
    "Tho": 282,
    "Thou</w>": 283,
    "Though</w>": 284,
    "Thus</w>": 285,
    "Thy</w>": 286,
    "Till</w>": 287,
    "Tis</w>": 288,
    "To": 289,
    "To</w>": 290,
    "Tower</w>": 291,
    "Tran": 292,
    "Tru": 293,
    "Ty": 294,
    "Tybal": 295,
    "Tybalt</w>": 296,
    "U": 297,
    "Un": 298,
    "Unless</w>": 299,
    "Upon</w>": 300,
    "V": 301,
    "Vol": 302,
    "W": 303,
    "War": 304,
    "Warwick</w>": 305,
    "Was</w>": 306,
    "We</w>": 307,
    "Wel": 308,
    "Welcome</w>": 309,
    "Well</w>": 310,
    "Were</w>": 311,
    "Wh": 312,
    "What</w>": 313,
    "When</w>": 314,
    "Where</w>": 315,
    "Whi": 316,
    "Which</w>": 317,
    "Who": 318,
    "Who</w>": 319,
    "Whom</w>": 320,
    "Whose</w>": 321,
    "Why</w>": 322,
    "Wi": 323,
    "Will</w>": 324,
    "With": 325,
    "With</w>": 326,
    "Would</w>": 327,
    "X": 328,
    "Y": 329,
    "Y</w>": 330,
    "Yes</w>": 331,
    "Yet</w>": 332,
    "Yor": 333,
    "York</w>": 334,
    "You</w>": 335,
    "Your</w>": 336,
    "Z": 337,
    "_": 338,
    "a": 339,
    "a</w>": 340,
    "ab": 341,
    "able</w>": 342,
    "abo": 343,
    "about</w>": 344,
    "ac": 345,
    "accu": 346,
    "ach</w>": 347,
    "ad": 348,
    "ad</w>": 349,
    "af": 350,
    "affec": 351,
    "after</w>": 352,
    "aga": 353,
    "again</w>": 354,
    "against</w>": 355,
    "age</w>": 356,
    "air</w>": 357,
    "ake</w>": 358,
    "al": 359,
    "al</w>": 360,
    "all</w>": 361,
    "ally</w>": 362,
    "alone</w>": 363,
    "along</w>": 364,
    "already</w>": 365,
    "am": 366,
    "am</w>": 367,
    "an": 368,
    "an</w>": 369,
    "anc": 370,
    "ance</w>": 371,
    "ancient</w>": 372,
    "and</w>": 373,
    "ands</w>": 374,
    "ang": 375,
    "ani": 376,
    "another</w>": 377,
    "ans</w>": 378,
    "answ": 379,
    "answer</w>": 380,
    "ant</w>": 381,
    "any</w>": 382,
    "ap": 383,
    "app": 384,
    "appear</w>": 385,
    "appro": 386,
    "ar": 387,
    "ar</w>": 388,
    "ard</w>": 389,
    "are": 390,
    "are</w>": 391,
    "arewell</w>": 392,
    "arm</w>": 393,
    "arms</w>": 394,
    "art</w>": 395,
    "ary</w>": 396,
    "as": 397,
    "as</w>": 398,
    "ask</w>": 399,
    "at": 400,
    "at</w>": 401,
    "atch</w>": 402,
    "ate</w>": 403,
    "ates</w>": 404,
    "ation</w>": 405,
    "au": 406,
    "aunt</w>": 407,
    "away</w>": 408,
    "ay</w>": 409,
    "b": 410,
    "b</w>": 411,
    "ba": 412,
    "back</w>": 413,
    "bad</w>": 414,
    "bal": 415,
    "bani": 416,
    "banish</w>": 417,
    "bar": 418,
    "bat": 419,
    "battle</w>": 420,
    "be": 421,
    "be</w>": 422,
    "bea": 423,
    "bear": 424,
    "bear</w>": 425,
    "beat</w>": 426,
    "beau": 427,
    "beauty</w>": 428,
    "become</w>": 429,
    "bed</w>": 430,
    "been</w>": 431,
    "before</w>": 432,
    "beg": 433,
    "behold</w>": 434,
    "being</w>": 435,
    "bel": 436,
    "bel</w>": 437,
    "believe</w>": 438,
    "ber": 439,
    "bes": 440,
    "beseech</w>": 441,
    "best</w>": 442,
    "better</w>": 443,
    "between</w>": 444,
    "bi": 445,
    "bid</w>": 446,
    "bir": 447,
    "bl": 448,
    "bla": 449,
    "black</w>": 450,
    "ble</w>": 451,
    "bles": 452,
    "blo": 453,
    "bloo": 454,
    "blood</w>": 455,
    "bloody</w>": 456,
    "bo": 457,
    "body</w>": 458,
    "bold</w>": 459,
    "bor": 460,
    "born</w>": 461,
    "bosom</w>": 462,
    "both</w>": 463,
    "bound</w>": 464,
    "bour</w>": 465,
    "boy</w>": 466,
    "br": 467,
    "bra": 468,
    "brave</w>": 469,
    "brea": 470,
    "break</w>": 471,
    "breast</w>": 472,
    "breath</w>": 473,
    "bri": 474,
    "brief</w>": 475,
    "bring</w>": 476,
    "bro": 477,
    "broke</w>": 478,
    "brother</w>": 479,
    "brought</w>": 480,
    "bu": 481,
    "bun": 482,
    "bur": 483,
    "bus": 484,
    "business</w>": 485,
    "but</w>": 486,
    "buy</w>": 487,
    "by</w>": 488,
    "c": 489,
    "c</w>": 490,
    "ca": 491,
    "call</w>": 492,
    "came</w>": 493,
    "can": 494,
    "can</w>": 495,
    "cannot</w>": 496,
    "canst</w>": 497,
    "car": 498,
    "care</w>": 499,
    "case</w>": 500,
    "cause</w>": 501,
    "ce": 502,
    "ce</w>": 503,
    "ced</w>": 504,
    "ceed</w>": 505,
    "cei": 506,
    "ceive</w>": 507,
    "ceived</w>": 508,
    "cen": 509,
    "cer": 510,
    "ces": 511,
    "ces</w>": 512,
    "cess</w>": 513,
    "cester</w>": 514,
    "ch": 515,
    "ch</w>": 516,
    "cha": 517,
    "chan": 518,
    "chance</w>": 519,
    "chang": 520,
    "change</w>": 521,
    "char": 522,
    "chard</w>": 523,
    "charge</w>": 524,
    "che": 525,
    "chee": 526,
    "ches</w>": 527,
    "chi": 528,
    "child": 529,
    "child</w>": 530,
    "children</w>": 531,
    "cho": 532,
    "ci": 533,
    "cient</w>": 534,
    "cious</w>": 535,
    "city</w>": 536,
    "ck": 537,
    "ck</w>": 538,
    "cked</w>": 539,
    "cks</w>": 540,
    "cla": 541,
    "claim</w>": 542,
    "clo": 543,
    "clou": 544,
    "co": 545,
    "col": 546,
    "cold</w>": 547,
    "com": 548,
    "come</w>": 549,
    "comes</w>": 550,
    "comfor": 551,
    "comfort</w>": 552,
    "comm": 553,
    "command</w>": 554,
    "common</w>": 555,
    "comp": 556,
    "company</w>": 557,
    "con": 558,
    "cond</w>": 559,
    "conf": 560,
    "consu": 561,
    "consul</w>": 562,
    "cont": 563,
    "content</w>": 564,
    "cor": 565,
    "cou": 566,
    "could</w>": 567,
    "coun": 568,
    "counsel</w>": 569,
    "count</w>": 570,
    "country</w>": 571,
    "cour": 572,
    "course</w>": 573,
    "court</w>": 574,
    "cousin</w>": 575,
    "cra": 576,
    "cre": 577,
    "crea": 578,
    "cri": 579,
    "cro": 580,
    "crown</w>": 581,
    "cru": 582,
    "cry</w>": 583,
    "ct</w>": 584,
    "ction</w>": 585,
    "ctor": 586,
    "cu": 587,
    "cur": 588,
    "cure</w>": 589,
    "curse</w>": 590,
    "cut</w>": 591,
    "cy</w>": 592,
    "d": 593,
    "d</w>": 594,
    "da": 595,
    "dam</w>": 596,
    "dang": 597,
    "dangerous</w>": 598,
    "dar": 599,
    "dare</w>": 600,
    "daughter</w>": 601,
    "day</w>": 602,
    "days</w>": 603,
    "dd": 604,
    "dden</w>": 605,
    "de": 606,
    "de</w>": 607,
    "dea": 608,
    "dead</w>": 609,
    "dear</w>": 610,
    "death</w>": 611,
    "ded</w>": 612,
    "deed</w>": 613,
    "deeds</w>": 614,
    "deep</w>": 615,
    "def": 616,
    "deli": 617,
    "deliver</w>": 618,
    "dem": 619,
    "den": 620,
    "den</w>": 621,
    "der": 622,
    "der</w>": 623,
    "ders</w>": 624,
    "des": 625,
    "des</w>": 626,
    "deser": 627,
    "desire</w>": 628,
    "dev": 629,
    "devil</w>": 630,
    "dful</w>": 631,
    "dg": 632,
    "dge</w>": 633,
    "di": 634,
    "did</w>": 635,
    "didst</w>": 636,
    "die</w>": 637,
    "dies</w>": 638,
    "dig": 639,
    "ding</w>": 640,
    "dire": 641,
    "dis": 642,
    "dish": 643,
    "dishon": 644,
    "disp": 645,
    "div": 646,
    "dly</w>": 647,
    "dness</w>": 648,
    "do": 649,
    "do</w>": 650,
    "does</w>": 651,
    "dom</w>": 652,
    "don</w>": 653,
    "done</w>": 654,
    "dost</w>": 655,
    "doth</w>": 656,
    "dou": 657,
    "doub": 658,
    "doubt</w>": 659,
    "dow</w>": 660,
    "down</w>": 661,
    "dr": 662,
    "dra": 663,
    "draw</w>": 664,
    "drea": 665,
    "dream</w>": 666,
    "dred</w>": 667,
    "dro": 668,
    "dru": 669,
    "drun": 670,
    "ds</w>": 671,
    "dst</w>": 672,
    "du": 673,
    "duke</w>": 674,
    "duty</w>": 675,
    "dy</w>": 676,
    "e": 677,
    "e</w>": 678,
    "ea": 679,
    "ea</w>": 680,
    "eace</w>": 681,
    "each</w>": 682,
    "eak</w>": 683,
    "eal</w>": 684,
    "ear": 685,
    "ear</w>": 686,
    "early</w>": 687,
    "ears</w>": 688,
    "earth</w>": 689,
    "ease</w>": 690,
    "eat</w>": 691,
    "ec": 692,
    "ect</w>": 693,
    "ects</w>": 694,
    "ecu": 695,
    "ed</w>": 696,
    "ee": 697,
    "eech</w>": 698,
    "eeds</w>": 699,
    "eel</w>": 700,
    "een</w>": 701,
    "eep": 702,
    "eep</w>": 703,
    "eeping</w>": 704,
    "eeps</w>": 705,
    "eet</w>": 706,
    "ef</w>": 707,
    "either</w>": 708,
    "el": 709,
    "el</w>": 710,
    "eld</w>": 711,
    "ell": 712,
    "ell</w>": 713,
    "els</w>": 714,
    "else</w>": 715,
    "ely</w>": 716,
    "emb": 717,
    "emp": 718,
    "en": 719,
    "en</w>": 720,
    "ence</w>": 721,
    "ench</w>": 722,
    "end": 723,
    "end</w>": 724,
    "ends</w>": 725,
    "ene": 726,
    "enemies</w>": 727,
    "enemy</w>": 728,
    "eng": 729,
    "ength</w>": 730,
    "enough</w>": 731,
    "ens</w>": 732,
    "ent": 733,
    "ent</w>": 734,
    "ented</w>": 735,
    "enter</w>": 736,
    "ently</w>": 737,
    "enty</w>": 738,
    "ep": 739,
    "er": 740,
    "er</w>": 741,
    "eral</w>": 742,
    "ere": 743,
    "ere</w>": 744,
    "erefore</w>": 745,
    "erein</w>": 746,
    "ereof</w>": 747,
    "eri": 748,
    "ering</w>": 749,
    "erous</w>": 750,
    "ers</w>": 751,
    "ery</w>": 752,
    "es": 753,
    "es</w>": 754,
    "ese</w>": 755,
    "ess</w>": 756,
    "est</w>": 757,
    "esty</w>": 758,
    "et</w>": 759,
    "ether</w>": 760,
    "ets</w>": 761,
    "ev": 762,
    "even</w>": 763,
    "ever</w>": 764,
    "every</w>": 765,
    "ew": 766,
    "ex": 767,
    "exc": 768,
    "execu": 769,
    "ey": 770,
    "ey</w>": 771,
    "eye</w>": 772,
    "eyes</w>": 773,
    "f": 774,
    "f</w>": 775,
    "fa": 776,
    "face</w>": 777,
    "fair": 778,
    "fair</w>": 779,
    "faith</w>": 780,
    "fal": 781,
    "fall</w>": 782,
    "false</w>": 783,
    "fan": 784,
    "far": 785,
    "far</w>": 786,
    "farewell</w>": 787,
    "fast</w>": 788,
    "father</w>": 789,
    "fau": 790,
    "fault</w>": 791,
    "faults</w>": 792,
    "fav": 793,
    "fe": 794,
    "fe</w>": 795,
    "fea": 796,
    "fear": 797,
    "fear</w>": 798,
    "fearful</w>": 799,
    "fec": 800,
    "feel</w>": 801,
    "fel": 802,
    "fellow</w>": 803,
    "ff": 804,
    "ff</w>": 805,
    "fi": 806,
    "fidi": 807,
    "fied</w>": 808,
    "field</w>": 809,
    "fight</w>": 810,
    "find</w>": 811,
    "fir": 812,
    "fire</w>": 813,
    "first</w>": 814,
    "fit</w>": 815,
    "fla": 816,
    "fles": 817,
    "flesh</w>": 818,
    "flo": 819,
    "fly</w>": 820,
    "fo": 821,
    "foe</w>": 822,
    "fol": 823,
    "folk</w>": 824,
    "follow</w>": 825,
    "foo": 826,
    "fool</w>": 827,
    "foot</w>": 828,
    "for": 829,
    "for</w>": 830,
    "force</w>": 831,
    "ford</w>": 832,
    "fore": 833,
    "fore</w>": 834,
    "forget</w>": 835,
    "form</w>": 836,
    "forth</w>": 837,
    "fortune</w>": 838,
    "fou": 839,
    "foul</w>": 840,
    "found</w>": 841,
    "fra": 842,
    "fre": 843,
    "free</w>": 844,
    "fri": 845,
    "friar</w>": 846,
    "friend</w>": 847,
    "friends</w>": 848,
    "from</w>": 849,
    "ft</w>": 850,
    "fter</w>": 851,
    "fu": 852,
    "ful": 853,
    "ful</w>": 854,
    "full</w>": 855,
    "fully</w>": 856,
    "fur": 857,
    "further</w>": 858,
    "g": 859,
    "g</w>": 860,
    "ga": 861,
    "gainst</w>": 862,
    "gar": 863,
    "gates</w>": 864,
    "gave</w>": 865,
    "ge": 866,
    "ge</w>": 867,
    "ged</w>": 868,
    "gen": 869,
    "general</w>": 870,
    "gent": 871,
    "gentle": 872,
    "gentle</w>": 873,
    "gentleman</w>": 874,
    "gentlemen</w>": 875,
    "ger</w>": 876,
    "ges</w>": 877,
    "get</w>": 878,
    "gether</w>": 879,
    "gh": 880,
    "gh</w>": 881,
    "ght</w>": 882,
    "ghts</w>": 883,
    "gi": 884,
    "give</w>": 885,
    "given</w>": 886,
    "gla": 887,
    "glor": 888,
    "go": 889,
    "go</w>": 890,
    "gods</w>": 891,
    "goes</w>": 892,
    "gold</w>": 893,
    "gone</w>": 894,
    "goo": 895,
    "good</w>": 896,
    "got</w>": 897,
    "gover": 898,
    "gra": 899,
    "grace</w>": 900,
    "gracious</w>": 901,
    "gran": 902,
    "grant</w>": 903,
    "grave</w>": 904,
    "gre": 905,
    "grea": 906,
    "great</w>": 907,
    "gri": 908,
    "grief</w>": 909,
    "gro": 910,
    "ground</w>": 911,
    "gs</w>": 912,
    "gu": 913,
    "gue</w>": 914,
    "gues</w>": 915,
    "gui": 916,
    "guil": 917,
    "h": 918,
    "h</w>": 919,
    "ha": 920,
    "had</w>": 921,
    "half</w>": 922,
    "ham</w>": 923,
    "han": 924,
    "han</w>": 925,
    "hand</w>": 926,
    "hands</w>": 927,
    "hang": 928,
    "happ": 929,
    "happy</w>": 930,
    "har": 931,
    "harm</w>": 932,
    "has</w>": 933,
    "hast</w>": 934,
    "haste</w>": 935,
    "hat</w>": 936,
    "hate</w>": 937,
    "hath</w>": 938,
    "have</w>": 939,
    "having</w>": 940,
    "he": 941,
    "he</w>": 942,
    "hea": 943,
    "head</w>": 944,
    "heads</w>": 945,
    "hear": 946,
    "hear</w>": 947,
    "heard</w>": 948,
    "heart</w>": 949,
    "hearts</w>": 950,
    "heaven": 951,
    "heaven</w>": 952,
    "heavens</w>": 953,
    "heavy</w>": 954,
    "heir</w>": 955,
    "hel": 956,
    "held</w>": 957,
    "hell</w>": 958,
    "help</w>": 959,
    "hence</w>": 960,
    "her": 961,
    "her</w>": 962,
    "herd</w>": 963,
    "here</w>": 964,
    "hi": 965,
    "hich</w>": 966,
    "high": 967,
    "high</w>": 968,
    "highness</w>": 969,
    "him": 970,
    "him</w>": 971,
    "himself</w>": 972,
    "his</w>": 973,
    "hither</w>": 974,
    "ho": 975,
    "hol": 976,
    "hold</w>": 977,
    "holy</w>": 978,
    "home</w>": 979,
    "hon": 980,
    "honest</w>": 981,
    "honour</w>": 982,
    "hood</w>": 983,
    "hope</w>": 984,
    "hor": 985,
    "horse</w>": 986,
    "hou": 987,
    "hour</w>": 988,
    "hours</w>": 989,
    "house</w>": 990,
    "how</w>": 991,
    "hu": 992,
    "hun": 993,
    "hur": 994,
    "husb": 995,
    "husband</w>": 996,
    "i": 997,
    "i</w>": 998,
    "ice</w>": 999,
    "id": 1000,
    "id</w>": 1001,
    "ides</w>": 1002,
    "ies</w>": 1003,
    "if</w>": 1004,
    "ig": 1005,
    "igh": 1006,
    "ight</w>": 1007,
    "ign</w>": 1008,
    "il": 1009,
    "il</w>": 1010,
    "ill</w>": 1011,
    "ils</w>": 1012,
    "im": 1013,
    "im</w>": 1014,
    "imp": 1015,
    "in": 1016,
    "in</w>": 1017,
    "inc": 1018,
    "ince</w>": 1019,
    "ind</w>": 1020,
    "indeed</w>": 1021,
    "ine</w>": 1022,
    "ined</w>": 1023,
    "iness</w>": 1024,
    "inf": 1025,
    "ing": 1026,
    "ing</w>": 1027,
    "ingham</w>": 1028,
    "ings</w>": 1029,
    "ining</w>": 1030,
    "ink</w>": 1031,
    "ins</w>": 1032,
    "inst</w>": 1033,
    "instru": 1034,
    "int": 1035,
    "int</w>": 1036,
    "inted</w>": 1037,
    "inter": 1038,
    "into</w>": 1039,
    "ints</w>": 1040,
    "ious</w>": 1041,
    "ir": 1042,
    "ir</w>": 1043,
    "ire</w>": 1044,
    "irs</w>": 1045,
    "irst</w>": 1046,
    "is": 1047,
    "is</w>": 1048,
    "ise</w>": 1049,
    "ish</w>": 1050,
    "ison</w>": 1051,
    "issue</w>": 1052,
    "it": 1053,
    "it</w>": 1054,
    "ith</w>": 1055,
    "ither</w>": 1056,
    "its</w>": 1057,
    "itself</w>": 1058,
    "ity</w>": 1059,
    "ius</w>": 1060,
    "ive</w>": 1061,
    "j": 1062,
    "jo": 1063,
    "joy</w>": 1064,
    "ju": 1065,
    "just</w>": 1066,
    "justi": 1067,
    "justice</w>": 1068,
    "k": 1069,
    "k</w>": 1070,
    "ke": 1071,
    "ke</w>": 1072,
    "ked</w>": 1073,
    "keep</w>": 1074,
    "ken</w>": 1075,
    "kes</w>": 1076,
    "ki": 1077,
    "kill</w>": 1078,
    "kin": 1079,
    "kind</w>": 1080,
    "king": 1081,
    "king</w>": 1082,
    "kings</w>": 1083,
    "kiss</w>": 1084,
    "kn": 1085,
    "kne": 1086,
    "knew</w>": 1087,
    "kno": 1088,
    "know": 1089,
    "know</w>": 1090,
    "known</w>": 1091,
    "knows</w>": 1092,
    "ks</w>": 1093,
    "l": 1094,
    "l</w>": 1095,
    "la": 1096,
    "lace</w>": 1097,
    "lack</w>": 1098,
    "lady</w>": 1099,
    "lain</w>": 1100,
    "lan": 1101,
    "land</w>": 1102,
    "lar": 1103,
    "lar</w>": 1104,
    "las</w>": 1105,
    "last</w>": 1106,
    "late</w>": 1107,
    "lau": 1108,
    "law": 1109,
    "law</w>": 1110,
    "lawful</w>": 1111,
    "lay</w>": 1112,
    "ld": 1113,
    "ld</w>": 1114,
    "ldst</w>": 1115,
    "le": 1116,
    "le</w>": 1117,
    "lea": 1118,
    "lear": 1119,
    "learn</w>": 1120,
    "leave</w>": 1121,
    "led</w>": 1122,
    "ledge</w>": 1123,
    "left</w>": 1124,
    "les": 1125,
    "les</w>": 1126,
    "less</w>": 1127,
    "let</w>": 1128,
    "lf</w>": 1129,
    "li": 1130,
    "liant</w>": 1131,
    "lie": 1132,
    "lie</w>": 1133,
    "liege</w>": 1134,
    "lies</w>": 1135,
    "lieve</w>": 1136,
    "lif": 1137,
    "life</w>": 1138,
    "light</w>": 1139,
    "like</w>": 1140,
    "lin": 1141,
    "ling</w>": 1142,
    "lion</w>": 1143,
    "lips</w>": 1144,
    "lish</w>": 1145,
    "little</w>": 1146,
    "lity</w>": 1147,
    "live</w>": 1148,
    "lives</w>": 1149,
    "lk</w>": 1150,
    "ll": 1151,
    "ll</w>": 1152,
    "lled</w>": 1153,
    "lling</w>": 1154,
    "llo</w>": 1155,
    "lls</w>": 1156,
    "lo": 1157,
    "long": 1158,
    "long</w>": 1159,
    "loo": 1160,
    "look</w>": 1161,
    "looks</w>": 1162,
    "lor": 1163,
    "lord</w>": 1164,
    "lords</w>": 1165,
    "lose</w>": 1166,
    "loss</w>": 1167,
    "lost</w>": 1168,
    "lou": 1169,
    "love</w>": 1170,
    "loved</w>": 1171,
    "loves</w>": 1172,
    "loving</w>": 1173,
    "low": 1174,
    "low</w>": 1175,
    "lowers</w>": 1176,
    "lows</w>": 1177,
    "ls</w>": 1178,
    "lst</w>": 1179,
    "lt</w>": 1180,
    "lth</w>": 1181,
    "lts</w>": 1182,
    "lu": 1183,
    "ly</w>": 1184,
    "m": 1185,
    "m</w>": 1186,
    "ma": 1187,
    "mad</w>": 1188,
    "madam</w>": 1189,
    "made</w>": 1190,
    "maid</w>": 1191,
    "maj": 1192,
    "majesty</w>": 1193,
    "make</w>": 1194,
    "makes</w>": 1195,
    "man": 1196,
    "man</w>": 1197,
    "many</w>": 1198,
    "mar": 1199,
    "mark</w>": 1200,
    "marri": 1201,
    "marriage</w>": 1202,
    "married</w>": 1203,
    "marry</w>": 1204,
    "master</w>": 1205,
    "matter</w>": 1206,
    "may": 1207,
    "may</w>": 1208,
    "mb": 1209,
    "mb</w>": 1210,
    "mber</w>": 1211,
    "mble</w>": 1212,
    "me": 1213,
    "me</w>": 1214,
    "mea": 1215,
    "mean</w>": 1216,
    "means</w>": 1217,
    "med</w>": 1218,
    "meet</w>": 1219,
    "mel": 1220,
    "men": 1221,
    "men</w>": 1222,
    "ment</w>": 1223,
    "ments</w>": 1224,
    "mer": 1225,
    "mercy</w>": 1226,
    "merry</w>": 1227,
    "mes</w>": 1228,
    "met</w>": 1229,
    "mi": 1230,
    "mies</w>": 1231,
    "migh": 1232,
    "might</w>": 1233,
    "mighty</w>": 1234,
    "min": 1235,
    "mind</w>": 1236,
    "mine</w>": 1237,
    "ming</w>": 1238,
    "mis": 1239,
    "miser": 1240,
    "mistress</w>": 1241,
    "mity</w>": 1242,
    "mm": 1243,
    "mo": 1244,
    "mock</w>": 1245,
    "mon": 1246,
    "mor": 1247,
    "more</w>": 1248,
    "morning</w>": 1249,
    "morrow</w>": 1250,
    "mortal</w>": 1251,
    "most</w>": 1252,
    "mother</w>": 1253,
    "mou": 1254,
    "mour</w>": 1255,
    "move</w>": 1256,
    "mp": 1257,
    "mp</w>": 1258,
    "mple</w>": 1259,
    "ms</w>": 1260,
    "mu": 1261,
    "much</w>": 1262,
    "mur": 1263,
    "murder</w>": 1264,
    "musi": 1265,
    "must</w>": 1266,
    "my</w>": 1267,
    "myself</w>": 1268,
    "n": 1269,
    "n</w>": 1270,
    "na": 1271,
    "name</w>": 1272,
    "nat": 1273,
    "natu": 1274,
    "nature</w>": 1275,
    "nd</w>": 1276,
    "ne": 1277,
    "ne</w>": 1278,
    "near</w>": 1279,
    "ned</w>": 1280,
    "need</w>": 1281,
    "neither</w>": 1282,
    "ner</w>": 1283,
    "ness</w>": 1284,
    "never</w>": 1285,
    "new</w>": 1286,
    "news</w>": 1287,
    "next</w>": 1288,
    "ng": 1289,
    "ni": 1290,
    "night</w>": 1291,
    "ning</w>": 1292,
    "no": 1293,
    "no</w>": 1294,
    "nob": 1295,
    "noble</w>": 1296,
    "none</w>": 1297,
    "nor": 1298,
    "nor</w>": 1299,
    "not</w>": 1300,
    "nothing</w>": 1301,
    "now</w>": 1302,
    "ns</w>": 1303,
    "nurse</w>": 1304,
    "o": 1305,
    "o</w>": 1306,
    "oa": 1307,
    "oath</w>": 1308,
    "ob": 1309,
    "obe": 1310,
    "od</w>": 1311,
    "of": 1312,
    "of</w>": 1313,
    "off": 1314,
    "off</w>": 1315,
    "offi": 1316,
    "office</w>": 1317,
    "often</w>": 1318,
    "ok</w>": 1319,
    "ol": 1320,
    "old</w>": 1321,
    "om</w>": 1322,
    "ome</w>": 1323,
    "on": 1324,
    "on</w>": 1325,
    "ona</w>": 1326,
    "once</w>": 1327,
    "ond</w>": 1328,
    "one</w>": 1329,
    "ones</w>": 1330,
    "ong": 1331,
    "ong</w>": 1332,
    "only</w>": 1333,
    "ons</w>": 1334,
    "ood</w>": 1335,
    "op": 1336,
    "op</w>": 1337,
    "open</w>": 1338,
    "or": 1339,
    "or</w>": 1340,
    "ord</w>": 1341,
    "order</w>": 1342,
    "ore</w>": 1343,
    "orge</w>": 1344,
    "ori": 1345,
    "ors</w>": 1346,
    "ort</w>": 1347,
    "ose</w>": 1348,
    "ot</w>": 1349,
    "oth</w>": 1350,
    "other</w>": 1351,
    "ou": 1352,
    "ou</w>": 1353,
    "ough</w>": 1354,
    "ould</w>": 1355,
    "ouldst</w>": 1356,
    "oun": 1357,
    "ound</w>": 1358,
    "ounds</w>": 1359,
    "our": 1360,
    "our</w>": 1361,
    "oura": 1362,
    "ours</w>": 1363,
    "ous</w>": 1364,
    "out</w>": 1365,
    "over": 1366,
    "over</w>": 1367,
    "ow": 1368,
    "ow</w>": 1369,
    "own</w>": 1370,
    "p": 1371,
    "p</w>": 1372,
    "pa": 1373,
    "pair</w>": 1374,
    "pale</w>": 1375,
    "par": 1376,
    "pardon</w>": 1377,
    "part</w>": 1378,
    "pas": 1379,
    "pass</w>": 1380,
    "past</w>": 1381,
    "pati": 1382,
    "patience</w>": 1383,
    "pe": 1384,
    "pe</w>": 1385,
    "peace</w>": 1386,
    "pen": 1387,
    "peop": 1388,
    "people</w>": 1389,
    "per": 1390,
    "per</w>": 1391,
    "person</w>": 1392,
    "pes</w>": 1393,
    "ph": 1394,
    "pi": 1395,
    "pity</w>": 1396,
    "pla": 1397,
    "place</w>": 1398,
    "plain</w>": 1399,
    "play</w>": 1400,
    "plea": 1401,
    "please</w>": 1402,
    "pleasure</w>": 1403,
    "plu": 1404,
    "pluck</w>": 1405,
    "po": 1406,
    "point</w>": 1407,
    "poison</w>": 1408,
    "pon</w>": 1409,
    "poor</w>": 1410,
    "por": 1411,
    "pos": 1412,
    "pose</w>": 1413,
    "posed</w>": 1414,
    "poss": 1415,
    "post</w>": 1416,
    "power</w>": 1417,
    "pp": 1418,
    "pr": 1419,
    "pra": 1420,
    "pray": 1421,
    "pray</w>": 1422,
    "prayers</w>": 1423,
    "pre": 1424,
    "pres": 1425,
    "presence</w>": 1426,
    "present</w>": 1427,
    "press</w>": 1428,
    "pret": 1429,
    "pretty</w>": 1430,
    "pri": 1431,
    "princ": 1432,
    "prince</w>": 1433,
    "princely</w>": 1434,
    "prison": 1435,
    "prison</w>": 1436,
    "pro": 1437,
    "promi": 1438,
    "prou": 1439,
    "proud</w>": 1440,
    "prove</w>": 1441,
    "provo": 1442,
    "ps</w>": 1443,
    "pt</w>": 1444,
    "pu": 1445,
    "pur": 1446,
    "purpose</w>": 1447,
    "put</w>": 1448,
    "q": 1449,
    "qu": 1450,
    "qua": 1451,
    "quar": 1452,
    "quarrel</w>": 1453,
    "queen</w>": 1454,
    "qui": 1455,
    "quick": 1456,
    "r": 1457,
    "r</w>": 1458,
    "ra": 1459,
    "rage</w>": 1460,
    "rah</w>": 1461,
    "ral</w>": 1462,
    "ran": 1463,
    "rance</w>": 1464,
    "rant</w>": 1465,
    "rather</w>": 1466,
    "ray</w>": 1467,
    "re": 1468,
    "re</w>": 1469,
    "rea": 1470,
    "read</w>": 1471,
    "ready</w>": 1472,
    "reason</w>": 1473,
    "reat</w>": 1474,
    "red</w>": 1475,
    "ree": 1476,
    "ree</w>": 1477,
    "rel</w>": 1478,
    "rema": 1479,
    "reme": 1480,
    "remember</w>": 1481,
    "ren": 1482,
    "ren</w>": 1483,
    "rep": 1484,
    "report</w>": 1485,
    "requ": 1486,
    "request</w>": 1487,
    "res": 1488,
    "resol": 1489,
    "resp": 1490,
    "rest</w>": 1491,
    "return</w>": 1492,
    "reven": 1493,
    "revenge</w>": 1494,
    "rever": 1495,
    "rew</w>": 1496,
    "ri": 1497,
    "rich</w>": 1498,
    "ried</w>": 1499,
    "right</w>": 1500,
    "ring</w>": 1501,
    "ro": 1502,
    "rom</w>": 1503,
    "rou": 1504,
    "rough</w>": 1505,
    "rought</w>": 1506,
    "round</w>": 1507,
    "row</w>": 1508,
    "rown</w>": 1509,
    "roy": 1510,
    "royal</w>": 1511,
    "ru": 1512,
    "run</w>": 1513,
    "ry</w>": 1514,
    "s": 1515,
    "s</w>": 1516,
    "sa": 1517,
    "sad</w>": 1518,
    "sage</w>": 1519,
    "said</w>": 1520,
    "sake</w>": 1521,
    "same</w>": 1522,
    "sati": 1523,
    "satis": 1524,
    "save</w>": 1525,
    "saw</w>": 1526,
    "say</w>": 1527,
    "says</w>": 1528,
    "sb": 1529,
    "sca": 1530,
    "scar": 1531,
    "sci": 1532,
    "scor": 1533,
    "se": 1534,
    "se</w>": 1535,
    "sea": 1536,
    "sea</w>": 1537,
    "secre": 1538,
    "sed</w>": 1539,
    "see": 1540,
    "see</w>": 1541,
    "seek</w>": 1542,
    "seem</w>": 1543,
    "seems</w>": 1544,
    "seen</w>": 1545,
    "sel": 1546,
    "sel</w>": 1547,
    "self</w>": 1548,
    "selves</w>": 1549,
    "sen": 1550,
    "send</w>": 1551,
    "sent": 1552,
    "sent</w>": 1553,
    "ser": 1554,
    "serve</w>": 1555,
    "service</w>": 1556,
    "ses</w>": 1557,
    "set</w>": 1558,
    "sev": 1559,
    "sh": 1560,
    "sh</w>": 1561,
    "sha": 1562,
    "shall</w>": 1563,
    "shalt</w>": 1564,
    "shame</w>": 1565,
    "she</w>": 1566,
    "shed</w>": 1567,
    "shep": 1568,
    "shi": 1569,
    "ship</w>": 1570,
    "shment</w>": 1571,
    "sho": 1572,
    "should</w>": 1573,
    "show</w>": 1574,
    "si": 1575,
    "side</w>": 1576,
    "sig": 1577,
    "sight</w>": 1578,
    "sil": 1579,
    "sin</w>": 1580,
    "since</w>": 1581,
    "sing</w>": 1582,
    "sion</w>": 1583,
    "sir</w>": 1584,
    "sister</w>": 1585,
    "sit</w>": 1586,
    "sk": 1587,
    "sl": 1588,
    "sla": 1589,
    "slain</w>": 1590,
    "slaughter</w>": 1591,
    "sle": 1592,
    "sleep</w>": 1593,
    "sly</w>": 1594,
    "sma": 1595,
    "sman</w>": 1596,
    "smi": 1597,
    "so": 1598,
    "so</w>": 1599,
    "sol": 1600,
    "soldi": 1601,
    "soldiers</w>": 1602,
    "som</w>": 1603,
    "some": 1604,
    "some</w>": 1605,
    "something</w>": 1606,
    "son": 1607,
    "son</w>": 1608,
    "sons</w>": 1609,
    "soon</w>": 1610,
    "sor": 1611,
    "sorrow</w>": 1612,
    "sou": 1613,
    "soul</w>": 1614,
    "souls</w>": 1615,
    "sound</w>": 1616,
    "sovere": 1617,
    "sovereign</w>": 1618,
    "sp": 1619,
    "spe": 1620,
    "spea": 1621,
    "speak</w>": 1622,
    "speed</w>": 1623,
    "spi": 1624,
    "spir": 1625,
    "spirit</w>": 1626,
    "spo": 1627,
    "spoke</w>": 1628,
    "ss</w>": 1629,
    "st": 1630,
    "st</w>": 1631,
    "sta": 1632,
    "stan": 1633,
    "stand</w>": 1634,
    "stands</w>": 1635,
    "star": 1636,
    "state</w>": 1637,
    "stay</w>": 1638,
    "ste": 1639,
    "ste</w>": 1640,
    "ster</w>": 1641,
    "sters</w>": 1642,
    "sti": 1643,
    "still</w>": 1644,
    "sting</w>": 1645,
    "stings</w>": 1646,
    "stle</w>": 1647,
    "sto": 1648,
    "stor": 1649,
    "str": 1650,
    "stra": 1651,
    "straight</w>": 1652,
    "stran": 1653,
    "strange</w>": 1654,
    "strength</w>": 1655,
    "stress</w>": 1656,
    "stri": 1657,
    "strike</w>": 1658,
    "strong</w>": 1659,
    "stru": 1660,
    "sts</w>": 1661,
    "stu": 1662,
    "sty</w>": 1663,
    "su": 1664,
    "sub": 1665,
    "subj": 1666,
    "subject</w>": 1667,
    "suc": 1668,
    "such</w>": 1669,
    "sue</w>": 1670,
    "suff": 1671,
    "suit</w>": 1672,
    "summ": 1673,
    "sun</w>": 1674,
    "supp": 1675,
    "sur": 1676,
    "sure</w>": 1677,
    "sw": 1678,
    "swear</w>": 1679,
    "swee": 1680,
    "sweet</w>": 1681,
    "swi": 1682,
    "sword</w>": 1683,
    "sworn</w>": 1684,
    "sy</w>": 1685,
    "t": 1686,
    "t</w>": 1687,
    "ta": 1688,
    "ta</w>": 1689,
    "table</w>": 1690,
    "tain</w>": 1691,
    "take</w>": 1692,
    "tal</w>": 1693,
    "tale</w>": 1694,
    "talk</w>": 1695,
    "tation</w>": 1696,
    "tch": 1697,
    "tch</w>": 1698,
    "te": 1699,
    "te</w>": 1700,
    "tears</w>": 1701,
    "ted</w>": 1702,
    "tell</w>": 1703,
    "temp": 1704,
    "tempt</w>": 1705,
    "ten": 1706,
    "ten</w>": 1707,
    "tend</w>": 1708,
    "tender</w>": 1709,
    "teous</w>": 1710,
    "ter": 1711,
    "ter</w>": 1712,
    "ters</w>": 1713,
    "tes": 1714,
    "tes</w>": 1715,
    "test</w>": 1716,
    "th": 1717,
    "th</w>": 1718,
    "than": 1719,
    "than</w>": 1720,
    "thank</w>": 1721,
    "thanks</w>": 1722,
    "that</w>": 1723,
    "the": 1724,
    "the</w>": 1725,
    "thee</w>": 1726,
    "their</w>": 1727,
    "them": 1728,
    "them</w>": 1729,
    "themselves</w>": 1730,
    "then</w>": 1731,
    "thence</w>": 1732,
    "ther": 1733,
    "ther</w>": 1734,
    "there</w>": 1735,
    "therefore</w>": 1736,
    "thers</w>": 1737,
    "these</w>": 1738,
    "they</w>": 1739,
    "thi": 1740,
    "thin": 1741,
    "thine</w>": 1742,
    "thing</w>": 1743,
    "things</w>": 1744,
    "think</w>": 1745,
    "thinks</w>": 1746,
    "this</w>": 1747,
    "those</w>": 1748,
    "thou": 1749,
    "thou</w>": 1750,
    "though</w>": 1751,
    "thought</w>": 1752,
    "thoughts</w>": 1753,
    "thous": 1754,
    "thousand</w>": 1755,
    "thr": 1756,
    "three</w>": 1757,
    "thri": 1758,
    "throne</w>": 1759,
    "through</w>": 1760,
    "throw</w>": 1761,
    "ths</w>": 1762,
    "thus</w>": 1763,
    "thy</w>": 1764,
    "thyself</w>": 1765,
    "ti": 1766,
    "ties</w>": 1767,
    "till</w>": 1768,
    "time</w>": 1769,
    "times</w>": 1770,
    "tin": 1771,
    "ting</w>": 1772,
    "tio</w>": 1773,
    "tion</w>": 1774,
    "tions</w>": 1775,
    "tis</w>": 1776,
    "title</w>": 1777,
    "tive</w>": 1778,
    "tiz": 1779,
    "tizens</w>": 1780,
    "tle</w>": 1781,
    "tly</w>": 1782,
    "tness</w>": 1783,
    "to": 1784,
    "to</w>": 1785,
    "together</w>": 1786,
    "told</w>": 1787,
    "ton": 1788,
    "ton</w>": 1789,
    "tongue</w>": 1790,
    "too</w>": 1791,
    "took</w>": 1792,
    "tor": 1793,
    "tor</w>": 1794,
    "tou": 1795,
    "touch</w>": 1796,
    "tr": 1797,
    "tra": 1798,
    "trait": 1799,
    "traitor</w>": 1800,
    "tre": 1801,
    "trea": 1802,
    "tri": 1803,
    "tribun": 1804,
    "tribunes</w>": 1805,
    "triump": 1806,
    "tro": 1807,
    "trou": 1808,
    "tru": 1809,
    "true</w>": 1810,
    "trump": 1811,
    "trust</w>": 1812,
    "truth</w>": 1813,
    "try</w>": 1814,
    "ts</w>": 1815,
    "tt": 1816,
    "tted</w>": 1817,
    "tter": 1818,
    "tter</w>": 1819,
    "tters</w>": 1820,
    "tting</w>": 1821,
    "ttle</w>": 1822,
    "tu": 1823,
    "tun": 1824,
    "tune</w>": 1825,
    "tur": 1826,
    "ture</w>": 1827,
    "turn</w>": 1828,
    "tw": 1829,
    "twas</w>": 1830,
    "tween</w>": 1831,
    "twenty</w>": 1832,
    "twere</w>": 1833,
    "twi": 1834,
    "twixt</w>": 1835,
    "two</w>": 1836,
    "ty": 1837,
    "ty</w>": 1838,
    "u": 1839,
    "ue</w>": 1840,
    "ugh": 1841,
    "ught</w>": 1842,
    "ughter</w>": 1843,
    "umb": 1844,
    "ump": 1845,
    "un": 1846,
    "unc": 1847,
    "uncle</w>": 1848,
    "under": 1849,
    "under</w>": 1850,
    "unt</w>": 1851,
    "unto</w>": 1852,
    "up</w>": 1853,
    "upon</w>": 1854,
    "ur": 1855,
    "ur</w>": 1856,
    "ure</w>": 1857,
    "urse</w>": 1858,
    "ury</w>": 1859,
    "us</w>": 1860,
    "use</w>": 1861,
    "usur": 1862,
    "ut</w>": 1863,
    "v": 1864,
    "va": 1865,
    "val": 1866,
    "valiant</w>": 1867,
    "van": 1868,
    "vanta": 1869,
    "ve": 1870,
    "ve</w>": 1871,
    "ved</w>": 1872,
    "ven": 1873,
    "ven</w>": 1874,
    "ver": 1875,
    "ver</w>": 1876,
    "vere": 1877,
    "vers</w>": 1878,
    "very</w>": 1879,
    "ves</w>": 1880,
    "vi": 1881,
    "vice</w>": 1882,
    "victor": 1883,
    "vil": 1884,
    "villain</w>": 1885,
    "ving</w>": 1886,
    "vir": 1887,
    "virtu": 1888,
    "virtue</w>": 1889,
    "vo": 1890,
    "voi": 1891,
    "voice</w>": 1892,
    "voices</w>": 1893,
    "vow</w>": 1894,
    "vy</w>": 1895,
    "w": 1896,
    "w</w>": 1897,
    "wa": 1898,
    "wal": 1899,
    "wan": 1900,
    "want</w>": 1901,
    "war": 1902,
    "war</w>": 1903,
    "ward</w>": 1904,
    "wards</w>": 1905,
    "warrant</w>": 1906,
    "wars</w>": 1907,
    "was</w>": 1908,
    "water</w>": 1909,
    "way</w>": 1910,
    "ways</w>": 1911,
    "wd</w>": 1912,
    "we": 1913,
    "we</w>": 1914,
    "wea": 1915,
    "wear</w>": 1916,
    "weep</w>": 1917,
    "wel": 1918,
    "welcome</w>": 1919,
    "well</w>": 1920,
    "wer": 1921,
    "wer</w>": 1922,
    "were</w>": 1923,
    "wh": 1924,
    "what</w>": 1925,
    "when</w>": 1926,
    "where</w>": 1927,
    "whi": 1928,
    "which</w>": 1929,
    "while</w>": 1930,
    "who": 1931,
    "who</w>": 1932,
    "whom</w>": 1933,
    "whose</w>": 1934,
    "why</w>": 1935,
    "wi": 1936,
    "wick</w>": 1937,
    "wife</w>": 1938,
    "will</w>": 1939,
    "wilt</w>": 1940,
    "win": 1941,
    "wind</w>": 1942,
    "wing</w>": 1943,
    "wis": 1944,
    "wise</w>": 1945,
    "wish</w>": 1946,
    "wit</w>": 1947,
    "with": 1948,
    "with</w>": 1949,
    "withal</w>": 1950,
    "within</w>": 1951,
    "without</w>": 1952,
    "wn</w>": 1953,
    "wo": 1954,
    "woe</w>": 1955,
    "woman</w>": 1956,
    "women</w>": 1957,
    "won": 1958,
    "wor": 1959,
    "word</w>": 1960,
    "words</w>": 1961,
    "work</w>": 1962,
    "world</w>": 1963,
    "worn</w>": 1964,
    "worse</w>": 1965,
    "worth</w>": 1966,
    "worthy</w>": 1967,
    "would</w>": 1968,
    "wounds</w>": 1969,
    "wr": 1970,
    "wre": 1971,
    "wri": 1972,
    "wrong</w>": 1973,
    "ws</w>": 1974,
    "x": 1975,
    "x</w>": 1976,
    "xt</w>": 1977,
    "y": 1978,
    "y</w>": 1979,
    "ye</w>": 1980,
    "years</w>": 1981,
    "yet</w>": 1982,
    "yi": 1983,
    "yield</w>": 1984,
    "ying</w>": 1985,
    "you": 1986,
    "you</w>": 1987,
    "youn": 1988,
    "young</w>": 1989,
    "your": 1990,
    "your</w>": 1991,
    "yours</w>": 1992,
    "yourself</w>": 1993,
    "youth</w>": 1994,
    "ys</w>": 1995,
    "yself</w>": 1996,
    "z": 1997,
    "ze</w>": 1998,
    "zed</w>": 1999
  },
  "merges": [
    [
      "e",
      "</w>"
    ],
    [
      "t",
      "h"
    ],
    [
      "s",
      "</w>"
    ],
    [
      "t",
      "</w>"
    ],
    [
      ",",
      "</w>"
    ],
    [
      "d",
      "</w>"
    ],
    [
      "r",
      "</w>"
    ],
    [
      "y",
      "</w>"
    ],
    [
      "o",
      "u"
    ],
    [
      "n",
      "</w>"
    ],
    [
      "o",
      "</w>"
    ],
    [
      "a",
      "n"
    ],
    [
      ".",
      "</w>"
    ],
    [
      "l",
      "</w>"
    ],
    [
      "i",
      "n"
    ],
    [
      "h",
      "a"
    ],
    [
      "e",
      "a"
    ],
    [
      "'",
      "</w>"
    ],
    [
      "e",
      "r"
    ],
    [
      "e",
      "r</w>"
    ],
    [
      "th",
      "e</w>"
    ],
    [
      "i",
      "s</w>"
    ],
    [
      "f",
      "</w>"
    ],
    [
      "o",
      "r"
    ],
    [
      "l",
      "l</w>"
    ],
    [
      "I",
      "</w>"
    ],
    [
      "y",
      "ou"
    ],
    [
      "e",
      "n"
    ],
    [
      "an",
      "d</w>"
    ],
    [
      "t",
      "o</w>"
    ],
    [
      "a",
      "r"
    ],
    [
      "th",
      "</w>"
    ],
    [
      "n",
      "o"
    ],
    [
      "m",
      "</w>"
    ],
    [
      "m",
      "e</w>"
    ],
    [
      "g",
      "</w>"
    ],
    [
      "w",
      "i"
    ],
    [
      ";",
      "</w>"
    ],
    [
      "o",
      "n"
    ],
    [
      "e",
      "s"
    ],
    [
      "o",
      "f</w>"
    ],
    [
      ":",
      "</w>"
    ],
    [
      "v",
      "e</w>"
    ],
    [
      "i",
      "n</w>"
    ],
    [
      "e",
      "d</w>"
    ],
    [
      "in",
      "g</w>"
    ],
    [
      "h",
      "i"
    ],
    [
      "a",
      "</w>"
    ],
    [
      "e",
      "s</w>"
    ],
    [
      "r",
      "o"
    ],
    [
      "e",
      "n</w>"
    ],
    [
      "h",
      "</w>"
    ],
    [
      "o",
      "r</w>"
    ],
    [
      "w",
      "</w>"
    ],
    [
      "s",
      "t"
    ],
    [
      "you",
      "</w>"
    ],
    [
      "m",
      "y</w>"
    ],
    [
      "o",
      "n</w>"
    ],
    [
      "h",
      "e</w>"
    ],
    [
      "a",
      "t</w>"
    ],
    [
      "m",
      "a"
    ],
    [
      "k",
      "</w>"
    ],
    [
      "l",
      "i"
    ],
    [
      "?",
      "</w>"
    ],
    [
      "s",
      "t</w>"
    ],
    [
      "c",
      "e</w>"
    ],
    [
      "th",
      "e"
    ],
    [
      "n",
      "d</w>"
    ],
    [
      "!",
      "</w>"
    ],
    [
      "no",
      "t</w>"
    ],
    [
      "l",
      "o"
    ],
    [
      "th",
      "at</w>"
    ],
    [
      "i",
      "t</w>"
    ],
    [
      "l",
      "d</w>"
    ],
    [
      "t",
      "i"
    ],
    [
      "r",
      "i"
    ],
    [
      "r",
      "e"
    ],
    [
      "s",
      "e</w>"
    ],
    [
      "A",
      "nd</w>"
    ],
    [
      "er",
      "e</w>"
    ],
    [
      "-",
      "</w>"
    ],
    [
      "r",
      "a"
    ],
    [
      "ha",
      "t</w>"
    ],
    [
      "e",
      "l"
    ],
    [
      "l",
      "a"
    ],
    [
      "e",
      "t</w>"
    ],
    [
      "c",
      "h</w>"
    ],
    [
      "ou",
      "</w>"
    ],
    [
      "h",
      "is</w>"
    ],
    [
      "u",
      "t</w>"
    ],
    [
      "k",
      "e</w>"
    ],
    [
      "l",
      "e</w>"
    ],
    [
      "a",
      "s</w>"
    ],
    [
      "b",
      "e</w>"
    ],
    [
      "wi",
      "th</w>"
    ],
    [
      "h",
      "o"
    ],
    [
      "you",
      "r</w>"
    ],
    [
      "g",
      "h"
    ],
    [
      "u",
      "r"
    ],
    [
      "a",
      "y</w>"
    ],
    [
      "d",
      "i"
    ],
    [
      "c",
      "o"
    ],
    [
      "f",
      "or</w>"
    ],
    [
      "ou",
      "r</w>"
    ],
    [
      "th",
      "er</w>"
    ],
    [
      "i",
      "r</w>"
    ],
    [
      "f",
      "a"
    ],
    [
      "ha",
      "ve</w>"
    ],
    [
      "b",
      "e"
    ],
    [
      "th",
      "is</w>"
    ],
    [
      "o",
      "d</w>"
    ],
    [
      "f",
      "or"
    ],
    [
      "hi",
      "m</w>"
    ],
    [
      "d",
      "s</w>"
    ],
    [
      "u",
      "n"
    ],
    [
      "l",
      "y</w>"
    ],
    [
      "h",
      "ea"
    ],
    [
      "th",
      "ou</w>"
    ],
    [
      "p",
      "</w>"
    ],
    [
      "e",
      "e"
    ],
    [
      "c",
      "a"
    ],
    [
      "ou",
      "ld</w>"
    ],
    [
      "T",
      "h"
    ],
    [
      "s",
      "ha"
    ],
    [
      "th",
      "y</w>"
    ],
    [
      "t",
      "a"
    ],
    [
      "r",
      "ea"
    ],
    [
      "gh",
      "t</w>"
    ],
    [
      "s",
      "p"
    ],
    [
      "e",
      "ll</w>"
    ],
    [
      "s",
      "u"
    ],
    [
      "wi",
      "ll</w>"
    ],
    [
      "s",
      "o</w>"
    ],
    [
      "es",
      "s</w>"
    ],
    [
      "g",
      "o"
    ],
    [
      "u",
      "s</w>"
    ],
    [
      "b",
      "ut</w>"
    ],
    [
      "ar",
      "e</w>"
    ],
    [
      "t",
      "y</w>"
    ],
    [
      "s",
      "i"
    ],
    [
      "no",
      "w</w>"
    ],
    [
      "t",
      "s</w>"
    ],
    [
      "es",
      "t</w>"
    ],
    [
      "T",
      "he</w>"
    ],
    [
      "w",
      "h"
    ],
    [
      "or",
      "d</w>"
    ],
    [
      "on",
      "e</w>"
    ],
    [
      "a",
      "ll</w>"
    ],
    [
      "t",
      "er</w>"
    ],
    [
      "T",
      "o</w>"
    ],
    [
      "r",
      "u"
    ],
    [
      "m",
      "i"
    ],
    [
      "b",
      "y</w>"
    ],
    [
      "en",
      "t</w>"
    ],
    [
      "e",
      "v"
    ],
    [
      "a",
      "n</w>"
    ],
    [
      "s",
      "h"
    ],
    [
      "d",
      "o"
    ],
    [
      "s",
      "o"
    ],
    [
      "s",
      "a"
    ],
    [
      "ea",
      "r</w>"
    ],
    [
      "a",
      "t"
    ],
    [
      "W",
      "h"
    ],
    [
      "w",
      "e</w>"
    ],
    [
      "the",
      "e</w>"
    ],
    [
      "c",
      "k</w>"
    ],
    [
      "p",
      "o"
    ],
    [
      "h",
      "er</w>"
    ],
    [
      "d",
      "o</w>"
    ],
    [
      "sha",
      "ll</w>"
    ],
    [
      "g",
      "e</w>"
    ],
    [
      "m",
      "or"
    ],
    [
      "c",
      "on"
    ],
    [
      "i",
      "r"
    ],
    [
      "m",
      "o"
    ],
    [
      "w",
      "n</w>"
    ],
    [
      "ea",
      "r"
    ],
    [
      "m",
      "u"
    ],
    [
      "T",
      "hat</w>"
    ],
    [
      "s",
      "e"
    ],
    [
      "t",
      "o"
    ],
    [
      "b",
      "o"
    ],
    [
      "ma",
      "n</w>"
    ],
    [
      "n",
      "o</w>"
    ],
    [
      "ro",
      "m</w>"
    ],
    [
      "d",
      "e"
    ],
    [
      "w",
      "hat</w>"
    ],
    [
      "s",
      "el"
    ],
    [
      "co",
      "m"
    ],
    [
      "q",
      "u"
    ],
    [
      "a",
      "l"
    ],
    [
      "c",
      "i"
    ],
    [
      "w",
      "or"
    ],
    [
      "m",
      "e"
    ],
    [
      "B",
      "ut</w>"
    ],
    [
      "er",
      "s</w>"
    ],
    [
      "en",
      "ce</w>"
    ],
    [
      "hi",
      "ch</w>"
    ],
    [
      "O",
      "</w>"
    ],
    [
      "a",
      "m</w>"
    ],
    [
      "c",
      "h"
    ],
    [
      "g",
      "a"
    ],
    [
      "f",
      "rom</w>"
    ],
    [
      "go",
      "od</w>"
    ],
    [
      "l",
      "e"
    ],
    [
      "d",
      "e</w>"
    ],
    [
      "in",
      "e</w>"
    ],
    [
      "k",
      "ing</w>"
    ],
    [
      "d",
      "ea"
    ],
    [
      "p",
      "a"
    ],
    [
      "ou",
      "s</w>"
    ],
    [
      "w",
      "ar"
    ],
    [
      "p",
      "ro"
    ],
    [
      "W",
      "hat</w>"
    ],
    [
      "in",
      "g"
    ],
    [
      "f",
      "i"
    ],
    [
      "n",
      "e"
    ],
    [
      "w",
      "as</w>"
    ],
    [
      "r",
      "y</w>"
    ],
    [
      "mor",
      "e</w>"
    ],
    [
      "v",
      "i"
    ],
    [
      "c",
      "ou"
    ],
    [
      "ti",
      "on</w>"
    ],
    [
      "en",
      "t"
    ],
    [
      "sel",
      "f</w>"
    ],
    [
      "b",
      "le</w>"
    ],
    [
      "co",
      "me</w>"
    ],
    [
      "w",
      "ell</w>"
    ],
    [
      "o",
      "l"
    ],
    [
      "f",
      "u"
    ],
    [
      "w",
      "ould</w>"
    ],
    [
      "l",
      "ord</w>"
    ],
    [
      "the",
      "m</w>"
    ],
    [
      "i",
      "f</w>"
    ],
    [
      "l",
      "ea"
    ],
    [
      "F",
      "or</w>"
    ],
    [
      "s",
      "w"
    ],
    [
      "p",
      "r"
    ],
    [
      "b",
      "ro"
    ],
    [
      "the",
      "ir</w>"
    ],
    [
      "g",
      "h</w>"
    ],
    [
      "t",
      "e</w>"
    ],
    [
      "er",
      "e"
    ],
    [
      "d",
      "y</w>"
    ],
    [
      "the",
      "y</w>"
    ],
    [
      "ou",
      "t</w>"
    ],
    [
      "p",
      "ar"
    ],
    [
      "hea",
      "r"
    ],
    [
      "s",
      "on</w>"
    ],
    [
      "o",
      "w</w>"
    ],
    [
      "W",
      "i"
    ],
    [
      "f",
      "e</w>"
    ],
    [
      "s",
      "h</w>"
    ],
    [
      "M",
      "y</w>"
    ],
    [
      "g",
      "u"
    ],
    [
      "lo",
      "ve</w>"
    ],
    [
      "en",
      "d</w>"
    ],
    [
      "h",
      "ere</w>"
    ],
    [
      "th",
      "en</w>"
    ],
    [
      "g",
      "i"
    ],
    [
      "r",
      "an"
    ],
    [
      "g",
      "ra"
    ],
    [
      "p",
      "on</w>"
    ],
    [
      "s",
      "ir</w>"
    ],
    [
      "l",
      "et</w>"
    ],
    [
      "s",
      "ay</w>"
    ],
    [
      "i",
      "d</w>"
    ],
    [
      "w",
      "ere</w>"
    ],
    [
      "for",
      "e</w>"
    ],
    [
      "li",
      "ke</w>"
    ],
    [
      "e",
      "c"
    ],
    [
      "m",
      "p"
    ],
    [
      "t",
      "ru"
    ],
    [
      "a",
      "l</w>"
    ],
    [
      "ha",
      "th</w>"
    ],
    [
      "A",
      "s</w>"
    ],
    [
      "v",
      "er"
    ],
    [
      "s",
      "he</w>"
    ],
    [
      "ur",
      "e</w>"
    ],
    [
      "o",
      "me</w>"
    ],
    [
      "m",
      "b"
    ],
    [
      "w",
      "s</w>"
    ],
    [
      "t",
      "ed</w>"
    ],
    [
      "an",
      "y</w>"
    ],
    [
      "ho",
      "w</w>"
    ],
    [
      "c",
      "ha"
    ],
    [
      "v",
      "es</w>"
    ],
    [
      "d",
      "er</w>"
    ],
    [
      "ma",
      "y</w>"
    ],
    [
      "th",
      "ou"
    ],
    [
      "ev",
      "er</w>"
    ],
    [
      "A",
      "</w>"
    ],
    [
      "k",
      "now</w>"
    ],
    [
      "ma",
      "ke</w>"
    ],
    [
      "w",
      "a"
    ],
    [
      "b",
      "lo"
    ],
    [
      "n",
      "i"
    ],
    [
      "b",
      "a"
    ],
    [
      "m",
      "en</w>"
    ],
    [
      "k",
      "s</w>"
    ],
    [
      "Y",
      "ou</w>"
    ],
    [
      "th",
      "an</w>"
    ],
    [
      "mu",
      "st</w>"
    ],
    [
      "w",
      "ay</w>"
    ],
    [
      "u",
      "pon</w>"
    ],
    [
      "H",
      "a"
    ],
    [
      "o",
      "f"
    ],
    [
      "t",
      "t"
    ],
    [
      "in",
      "d</w>"
    ],
    [
      "ea",
      "k</w>"
    ],
    [
      "th",
      "ere</w>"
    ],
    [
      "dea",
      "th</w>"
    ],
    [
      "f",
      "ri"
    ],
    [
      "p",
      "i"
    ],
    [
      "d",
      "u"
    ],
    [
      "fu",
      "l</w>"
    ],
    [
      "o",
      "k</w>"
    ],
    [
      "sh",
      "ould</w>"
    ],
    [
      "ha",
      "d</w>"
    ],
    [
      "H",
      "e</w>"
    ],
    [
      "w",
      "hich</w>"
    ],
    [
      "w",
      "o"
    ],
    [
      "war",
      "d</w>"
    ],
    [
      "n",
      "a"
    ],
    [
      "p",
      "er"
    ],
    [
      "d",
      "a"
    ],
    [
      "i",
      "ll</w>"
    ],
    [
      "s",
      "ed</w>"
    ],
    [
      "I",
      "f</w>"
    ],
    [
      "th",
      "ing</w>"
    ],
    [
      "in",
      "k</w>"
    ],
    [
      "a",
      "ga"
    ],
    [
      "es",
      "e</w>"
    ],
    [
      "h",
      "on"
    ],
    [
      "t",
      "ter</w>"
    ],
    [
      "u",
      "p</w>"
    ],
    [
      "fa",
      "ther</w>"
    ],
    [
      "y",
      "et</w>"
    ],
    [
      "ee",
      "p</w>"
    ],
    [
      "g",
      "o</w>"
    ],
    [
      "ti",
      "me</w>"
    ],
    [
      "v",
      "en</w>"
    ],
    [
      "to",
      "o</w>"
    ],
    [
      "se",
      "e</w>"
    ],
    [
      "a",
      "c"
    ],
    [
      "di",
      "d</w>"
    ],
    [
      "so",
      "me</w>"
    ],
    [
      "d",
      "es"
    ],
    [
      "e",
      "x"
    ],
    [
      "on",
      "g</w>"
    ],
    [
      "W",
      "hich</w>"
    ],
    [
      "G",
      "od</w>"
    ],
    [
      "wh",
      "en</w>"
    ],
    [
      "sp",
      "eak</w>"
    ],
    [
      "p",
      "la"
    ],
    [
      "l",
      "l"
    ],
    [
      "ear",
      "s</w>"
    ],
    [
      "u",
      "se</w>"
    ],
    [
      "m",
      "ine</w>"
    ],
    [
      "ro",
      "w</w>"
    ],
    [
      "s",
      "ou"
    ],
    [
      "p",
      "p"
    ],
    [
      "c",
      "an"
    ],
    [
      "s",
      "s</w>"
    ],
    [
      "d",
      "ay</w>"
    ],
    [
      "l",
      "t</w>"
    ],
    [
      "e",
      "y"
    ],
    [
      "lo",
      "w</w>"
    ],
    [
      "m",
      "ar"
    ],
    [
      "ing",
      "s</w>"
    ],
    [
      "gi",
      "ve</w>"
    ],
    [
      "mo",
      "st</w>"
    ],
    [
      "o",
      "p"
    ],
    [
      "r",
      "ou"
    ],
    [
      "ca",
      "n</w>"
    ],
    [
      "e",
      "en</w>"
    ],
    [
      "b",
      "u"
    ],
    [
      "su",
      "ch</w>"
    ],
    [
      "ta",
      "ke</w>"
    ],
    [
      "v",
      "ed</w>"
    ],
    [
      "st",
      "er</w>"
    ],
    [
      "hear",
      "t</w>"
    ],
    [
      "an",
      "t</w>"
    ],
    [
      "th",
      "ese</w>"
    ],
    [
      "ou",
      "r"
    ],
    [
      "n",
      "ess</w>"
    ],
    [
      "I",
      "n</w>"
    ],
    [
      "c",
      "e"
    ],
    [
      "cou",
      "n"
    ],
    [
      "Wi",
      "th</w>"
    ],
    [
      "li",
      "fe</w>"
    ],
    [
      "in",
      "ce</w>"
    ],
    [
      "bro",
      "ther</w>"
    ],
    [
      "f",
      "o"
    ],
    [
      "Wh",
      "y</w>"
    ],
    [
      "m",
      "s</w>"
    ],
    [
      "g",
      "ent"
    ],
    [
      "i",
      "t"
    ],
    [
      "at",
      "e</w>"
    ],
    [
      "r",
      "e</w>"
    ],
    [
      "S",
      "o</w>"
    ],
    [
      "T",
      "his</w>"
    ],
    [
      "p",
      "ri"
    ],
    [
      "l",
      "ess</w>"
    ],
    [
      "r",
      "es"
    ],
    [
      "n",
      "e</w>"
    ],
    [
      "O",
      "f</w>"
    ],
    [
      "th",
      "ink</w>"
    ],
    [
      "H",
      "ow</w>"
    ],
    [
      "m",
      "ent</w>"
    ],
    [
      "C",
      "ome</w>"
    ],
    [
      "c",
      "k"
    ],
    [
      "c",
      "hi"
    ],
    [
      "p",
      "e"
    ],
    [
      "o",
      "ther</w>"
    ],
    [
      "ar",
      "t</w>"
    ],
    [
      "b",
      "rea"
    ],
    [
      "N",
      "o</w>"
    ],
    [
      "i",
      "g"
    ],
    [
      "a",
      "d"
    ],
    [
      "an",
      "ce</w>"
    ],
    [
      "ma",
      "de</w>"
    ],
    [
      "mu",
      "ch</w>"
    ],
    [
      "l",
      "d"
    ],
    [
      "on",
      "s</w>"
    ],
    [
      "M",
      "ar"
    ],
    [
      "W",
      "e</w>"
    ],
    [
      "p",
      "ra"
    ],
    [
      "y",
      "self</w>"
    ],
    [
      "w",
      "ho"
    ],
    [
      "hea",
      "r</w>"
    ],
    [
      "Th",
      "ou</w>"
    ],
    [
      "s",
      "er"
    ],
    [
      "blo",
      "od</w>"
    ],
    [
      "i",
      "l</w>"
    ],
    [
      "cha",
      "r"
    ],
    [
      "y",
      "s</w>"
    ],
    [
      "a",
      "b"
    ],
    [
      "I",
      "s</w>"
    ],
    [
      "t",
      "ell</w>"
    ],
    [
      "o",
      "t</w>"
    ],
    [
      "en",
      "ds</w>"
    ],
    [
      "g",
      "rea"
    ],
    [
      "ni",
      "ght</w>"
    ],
    [
      "t",
      "er"
    ],
    [
      "l",
      "u"
    ],
    [
      "t",
      "w"
    ],
    [
      "an",
      "g"
    ],
    [
      "Y",
      "our</w>"
    ],
    [
      "di",
      "s"
    ],
    [
      "gu",
      "e</w>"
    ],
    [
      "a",
      "f"
    ],
    [
      "t",
      "is</w>"
    ],
    [
      "p",
      "re"
    ],
    [
      "R",
      "o"
    ],
    [
      "l",
      "and</w>"
    ],
    [
      "an",
      "ds</w>"
    ],
    [
      "w",
      "er</w>"
    ],
    [
      "c",
      "es</w>"
    ],
    [
      "ro",
      "wn</w>"
    ],
    [
      "o",
      "wn</w>"
    ],
    [
      "tru",
      "e</w>"
    ],
    [
      "R",
      "i"
    ],
    [
      "t",
      "ra"
    ],
    [
      "c",
      "u"
    ],
    [
      "w",
      "hi"
    ],
    [
      "in",
      "st</w>"
    ],
    [
      "can",
      "not</w>"
    ],
    [
      "N",
      "ow</w>"
    ],
    [
      "l",
      "or"
    ],
    [
      "n",
      "g"
    ],
    [
      "t",
      "e"
    ],
    [
      "v",
      "en"
    ],
    [
      "h",
      "e"
    ],
    [
      "hon",
      "our</w>"
    ],
    [
      "d",
      "one</w>"
    ],
    [
      "O",
      "r</w>"
    ],
    [
      "n",
      "ever</w>"
    ],
    [
      "no",
      "ble</w>"
    ],
    [
      "j",
      "u"
    ],
    [
      "d",
      "ed</w>"
    ],
    [
      "j",
      "o"
    ],
    [
      "h",
      "u"
    ],
    [
      "f",
      "ir"
    ],
    [
      "ver",
      "y</w>"
    ],
    [
      "h",
      "and</w>"
    ],
    [
      "e",
      "y</w>"
    ],
    [
      "e",
      "et</w>"
    ],
    [
      "p",
      "e</w>"
    ],
    [
      "E",
      "d"
    ],
    [
      "be",
      "en</w>"
    ],
    [
      "ere",
      "fore</w>"
    ],
    [
      "v",
      "o"
    ],
    [
      "Ed",
      "ward</w>"
    ],
    [
      "m",
      "er"
    ],
    [
      "fa",
      "ir</w>"
    ],
    [
      "t",
      "u"
    ],
    [
      "wh",
      "ere</w>"
    ],
    [
      "f",
      "ol"
    ],
    [
      "na",
      "me</w>"
    ],
    [
      "I",
      "t</w>"
    ],
    [
      "l",
      "es</w>"
    ],
    [
      "pr",
      "es"
    ],
    [
      "do",
      "th</w>"
    ],
    [
      "l",
      "s</w>"
    ],
    [
      "o",
      "ld</w>"
    ],
    [
      "v",
      "er</w>"
    ],
    [
      "el",
      "y</w>"
    ],
    [
      "aga",
      "in</w>"
    ],
    [
      "B",
      "y</w>"
    ],
    [
      "qu",
      "een</w>"
    ],
    [
      "er",
      "y</w>"
    ],
    [
      "st",
      "r"
    ],
    [
      "s",
      "ee"
    ],
    [
      "v",
      "ing</w>"
    ],
    [
      "t",
      "en"
    ],
    [
      "m",
      "on"
    ],
    [
      "h",
      "ou"
    ],
    [
      "li",
      "ve</w>"
    ],
    [
      "B",
      "e"
    ],
    [
      "lo",
      "ok</w>"
    ],
    [
      "Wh",
      "ere</w>"
    ],
    [
      "p",
      "lea"
    ],
    [
      "p",
      "s</w>"
    ],
    [
      "f",
      "t</w>"
    ],
    [
      "o",
      "se</w>"
    ],
    [
      "k",
      "no"
    ],
    [
      "gra",
      "ce</w>"
    ],
    [
      "L",
      "ord</w>"
    ],
    [
      "be",
      "fore</w>"
    ],
    [
      "wh",
      "o</w>"
    ],
    [
      "t",
      "ri"
    ],
    [
      "c",
      "or"
    ],
    [
      "Wh",
      "en</w>"
    ],
    [
      "u",
      "gh"
    ],
    [
      "bo",
      "th</w>"
    ],
    [
      "ou",
      "n"
    ],
    [
      "f",
      "e"
    ],
    [
      "A",
      "y</w>"
    ],
    [
      "L",
      "et</w>"
    ],
    [
      "t",
      "ing</w>"
    ],
    [
      "grea",
      "t</w>"
    ],
    [
      "no",
      "r</w>"
    ],
    [
      "wi",
      "th"
    ],
    [
      "t",
      "ur"
    ],
    [
      "k",
      "es</w>"
    ],
    [
      "re",
      "e</w>"
    ],
    [
      "mo",
      "ther</w>"
    ],
    [
      "Th",
      "en</w>"
    ],
    [
      "i",
      "s"
    ],
    [
      "wor",
      "ld</w>"
    ],
    [
      "s",
      "hi"
    ],
    [
      "b",
      "ear</w>"
    ],
    [
      "d",
      "er"
    ],
    [
      "com",
      "es</w>"
    ],
    [
      "s",
      "in</w>"
    ],
    [
      "f",
      "ear</w>"
    ],
    [
      "dea",
      "d</w>"
    ],
    [
      "wi",
      "ck</w>"
    ],
    [
      "d",
      "ing</w>"
    ],
    [
      "s",
      "et</w>"
    ],
    [
      "lea",
      "ve</w>"
    ],
    [
      "ha",
      "n</w>"
    ],
    [
      "C",
      "a"
    ],
    [
      "be",
      "ing</w>"
    ],
    [
      "hea",
      "d</w>"
    ],
    [
      "W",
      "ar"
    ],
    [
      "ca",
      "use</w>"
    ],
    [
      "m",
      "yself</w>"
    ],
    [
      "d",
      "on</w>"
    ],
    [
      "in",
      "t</w>"
    ],
    [
      "do",
      "wn</w>"
    ],
    [
      "l",
      "ed</w>"
    ],
    [
      "ey",
      "es</w>"
    ],
    [
      "s",
      "or"
    ],
    [
      "b",
      "ea"
    ],
    [
      "g",
      "ri"
    ],
    [
      "hea",
      "ven</w>"
    ],
    [
      "th",
      "us</w>"
    ],
    [
      "Wh",
      "o</w>"
    ],
    [
      "War",
      "wick</w>"
    ],
    [
      "st",
      "i"
    ],
    [
      "ca",
      "ll</w>"
    ],
    [
      "st",
      "and</w>"
    ],
    [
      "an",
      "i"
    ],
    [
      "com",
      "m"
    ],
    [
      "p",
      "u"
    ],
    [
      "di",
      "e</w>"
    ],
    [
      "po",
      "or</w>"
    ],
    [
      "fri",
      "ends</w>"
    ],
    [
      "c",
      "ur"
    ],
    [
      "t",
      "on"
    ],
    [
      "ha",
      "r"
    ],
    [
      "sw",
      "eet</w>"
    ],
    [
      "c",
      "ar"
    ],
    [
      "T",
      "han</w>"
    ],
    [
      "wi",
      "fe</w>"
    ],
    [
      "Ro",
      "me"
    ],
    [
      "Rome",
      "o</w>"
    ],
    [
      "e",
      "f</w>"
    ],
    [
      "m",
      "any</w>"
    ],
    [
      "b",
      "i"
    ],
    [
      "a",
      "way</w>"
    ],
    [
      "cou",
      "r"
    ],
    [
      "U",
      "n"
    ],
    [
      "hou",
      "se</w>"
    ],
    [
      "r",
      "ing</w>"
    ],
    [
      "ea",
      "ce</w>"
    ],
    [
      "ugh",
      "ter</w>"
    ],
    [
      "you",
      "r"
    ],
    [
      "s",
      "ea"
    ],
    [
      "d",
      "ly</w>"
    ],
    [
      "f",
      "ou"
    ],
    [
      "t",
      "un"
    ],
    [
      "for",
      "d</w>"
    ],
    [
      "ec",
      "t</w>"
    ],
    [
      "s",
      "es</w>"
    ],
    [
      "tt",
      "le</w>"
    ],
    [
      "H",
      "is</w>"
    ],
    [
      "sou",
      "l</w>"
    ],
    [
      "ci",
      "ous</w>"
    ],
    [
      "ou",
      "gh</w>"
    ],
    [
      "a",
      "s"
    ],
    [
      "de",
      "ed</w>"
    ],
    [
      "ha",
      "st</w>"
    ],
    [
      "an",
      "s</w>"
    ],
    [
      "b",
      "ra"
    ],
    [
      "a",
      "ke</w>"
    ],
    [
      "s",
      "la"
    ],
    [
      "our",
      "s</w>"
    ],
    [
      "p",
      "ur"
    ],
    [
      "in",
      "s</w>"
    ],
    [
      "g",
      "one</w>"
    ],
    [
      "t",
      "or"
    ],
    [
      "l",
      "ar"
    ],
    [
      "g",
      "e"
    ],
    [
      "G",
      "o</w>"
    ],
    [
      "par",
      "t</w>"
    ],
    [
      "wor",
      "ds</w>"
    ],
    [
      "s",
      "ure</w>"
    ],
    [
      "o",
      "od</w>"
    ],
    [
      "c",
      "rown</w>"
    ],
    [
      "w",
      "ord</w>"
    ],
    [
      "a",
      "r</w>"
    ],
    [
      "aga",
      "inst</w>"
    ],
    [
      "thou",
      "gh</w>"
    ],
    [
      "st",
      "ay</w>"
    ],
    [
      "d",
      "r"
    ],
    [
      "no",
      "thing</w>"
    ],
    [
      "si",
      "on</w>"
    ],
    [
      "i",
      "ther</w>"
    ],
    [
      "th",
      "ose</w>"
    ],
    [
      "ig",
      "n</w>"
    ],
    [
      "char",
      "d</w>"
    ],
    [
      "a",
      "ge</w>"
    ],
    [
      "li",
      "e"
    ],
    [
      "ti",
      "ll</w>"
    ],
    [
      "i",
      "ve</w>"
    ],
    [
      "m",
      "es</w>"
    ],
    [
      "T",
      "is</w>"
    ],
    [
      "W",
      "ell</w>"
    ],
    [
      "of",
      "f</w>"
    ],
    [
      "ne",
      "ws</w>"
    ],
    [
      "gent",
      "le"
    ],
    [
      "Ri",
      "chard</w>"
    ],
    [
      "or",
      "e</w>"
    ],
    [
      "b",
      "l"
    ],
    [
      "m",
      "ea"
    ],
    [
      "be",
      "tter</w>"
    ],
    [
      "qu",
      "i"
    ],
    [
      "t",
      "ch</w>"
    ],
    [
      "hi",
      "m"
    ],
    [
      "him",
      "self</w>"
    ],
    [
      "con",
      "t"
    ],
    [
      "h",
      "er"
    ],
    [
      "Y",
      "or"
    ],
    [
      "l",
      "ing</w>"
    ],
    [
      "en",
      "e"
    ],
    [
      "r",
      "est</w>"
    ],
    [
      "li",
      "ttle</w>"
    ],
    [
      "S",
      "ha"
    ],
    [
      "ho",
      "ld</w>"
    ],
    [
      "s",
      "b"
    ],
    [
      "st",
      "ill</w>"
    ],
    [
      "w",
      "r"
    ],
    [
      "Yor",
      "k</w>"
    ],
    [
      "H",
      "en"
    ],
    [
      "su",
      "b"
    ],
    [
      "m",
      "in"
    ],
    [
      "N",
      "ot</w>"
    ],
    [
      "B",
      "e</w>"
    ],
    [
      "tur",
      "n</w>"
    ],
    [
      "pra",
      "y</w>"
    ],
    [
      "H",
      "ere</w>"
    ],
    [
      "fa",
      "ce</w>"
    ],
    [
      "l",
      "ou"
    ],
    [
      "ri",
      "ght</w>"
    ],
    [
      "du",
      "ke</w>"
    ],
    [
      "Hen",
      "ry</w>"
    ],
    [
      "h",
      "el"
    ],
    [
      "Ha",
      "ve</w>"
    ],
    [
      "v",
      "a"
    ],
    [
      "h",
      "ence</w>"
    ],
    [
      "la",
      "dy</w>"
    ],
    [
      "c",
      "y</w>"
    ],
    [
      "p",
      "eace</w>"
    ],
    [
      "pe",
      "op"
    ],
    [
      "N",
      "ay</w>"
    ],
    [
      "Th",
      "ere</w>"
    ],
    [
      "f",
      "el"
    ],
    [
      "thou",
      "ght</w>"
    ],
    [
      "peop",
      "le</w>"
    ],
    [
      "re",
      "p"
    ],
    [
      "s",
      "en"
    ],
    [
      "ton",
      "gue</w>"
    ],
    [
      "po",
      "wer</w>"
    ],
    [
      "n",
      "s</w>"
    ],
    [
      "s",
      "ing</w>"
    ],
    [
      "s",
      "ur"
    ],
    [
      "c",
      "ed</w>"
    ],
    [
      "c",
      "ould</w>"
    ],
    [
      "ev",
      "en</w>"
    ],
    [
      "ear",
      "th</w>"
    ],
    [
      "b",
      "es"
    ],
    [
      "l",
      "ong</w>"
    ],
    [
      "ar",
      "e"
    ],
    [
      "tun",
      "e</w>"
    ],
    [
      "n",
      "ing</w>"
    ],
    [
      "f",
      "f"
    ],
    [
      "un",
      "to</w>"
    ],
    [
      "t",
      "ly</w>"
    ],
    [
      "g",
      "ar"
    ],
    [
      "da",
      "ughter</w>"
    ],
    [
      "Th",
      "y</w>"
    ],
    [
      "lor",
      "ds</w>"
    ],
    [
      "tw",
      "o</w>"
    ],
    [
      "ro",
      "y"
    ],
    [
      "e",
      "ld</w>"
    ],
    [
      "or",
      "t</w>"
    ],
    [
      "are",
      "well</w>"
    ],
    [
      "th",
      "an"
    ],
    [
      "l",
      "an"
    ],
    [
      "c",
      "es"
    ],
    [
      "com",
      "p"
    ],
    [
      "ba",
      "ck</w>"
    ],
    [
      "th",
      "ine</w>"
    ],
    [
      "ho",
      "pe</w>"
    ],
    [
      "ri",
      "ed</w>"
    ],
    [
      "d",
      "rea"
    ],
    [
      "pr",
      "ince</w>"
    ],
    [
      "gh",
      "ts</w>"
    ],
    [
      "c",
      "ho"
    ],
    [
      "a",
      "p"
    ],
    [
      "in",
      "ess</w>"
    ],
    [
      "Sha",
      "ll</w>"
    ],
    [
      "hu",
      "sb"
    ],
    [
      "ran",
      "t</w>"
    ],
    [
      "fir",
      "st</w>"
    ],
    [
      "wh",
      "y</w>"
    ],
    [
      "S",
      "ir</w>"
    ],
    [
      "on",
      "g"
    ],
    [
      "R",
      "ome</w>"
    ],
    [
      "ee",
      "ch</w>"
    ],
    [
      "for",
      "th</w>"
    ],
    [
      "th",
      "erefore</w>"
    ],
    [
      "you",
      "n"
    ],
    [
      "b",
      "ani"
    ],
    [
      "g",
      "en"
    ],
    [
      "Wi",
      "ll</w>"
    ],
    [
      "Y",
      "et</w>"
    ],
    [
      "p",
      "ut</w>"
    ],
    [
      "d",
      "ou"
    ],
    [
      "li",
      "ght</w>"
    ],
    [
      "gent",
      "le</w>"
    ],
    [
      "t",
      "ears</w>"
    ],
    [
      "be",
      "g"
    ],
    [
      "youn",
      "g</w>"
    ],
    [
      "n",
      "at"
    ],
    [
      "u",
      "r</w>"
    ],
    [
      "on",
      "ce</w>"
    ],
    [
      "pla",
      "ce</w>"
    ],
    [
      "st",
      "o"
    ],
    [
      "m",
      "en"
    ],
    [
      "a",
      "u"
    ],
    [
      "sa",
      "id</w>"
    ],
    [
      "b",
      "est</w>"
    ],
    [
      "b",
      "ed</w>"
    ],
    [
      "d",
      "ra"
    ],
    [
      "G",
      "ood</w>"
    ],
    [
      "ne",
      "w</w>"
    ],
    [
      "t",
      "en</w>"
    ],
    [
      "who",
      "se</w>"
    ],
    [
      "mb",
      "er</w>"
    ],
    [
      "husb",
      "and</w>"
    ],
    [
      "no",
      "ne</w>"
    ],
    [
      "in",
      "c"
    ],
    [
      "ee",
      "ds</w>"
    ],
    [
      "d",
      "ear</w>"
    ],
    [
      "Th",
      "ey</w>"
    ],
    [
      "o",
      "th</w>"
    ],
    [
      "F",
      "rom</w>"
    ],
    [
      "el",
      "se</w>"
    ],
    [
      "li",
      "es</w>"
    ],
    [
      "h",
      "ands</w>"
    ],
    [
      "mi",
      "ght</w>"
    ],
    [
      "p",
      "t</w>"
    ],
    [
      "k",
      "eep</w>"
    ],
    [
      "ho",
      "me</w>"
    ],
    [
      "b",
      "al"
    ],
    [
      "mor",
      "row</w>"
    ],
    [
      "a",
      "pp"
    ],
    [
      "ta",
      "in</w>"
    ],
    [
      "jo",
      "y</w>"
    ],
    [
      "b",
      "id</w>"
    ],
    [
      "par",
      "don</w>"
    ],
    [
      "ha",
      "pp"
    ],
    [
      "M",
      "a"
    ],
    [
      "an",
      "sw"
    ],
    [
      "t",
      "ry</w>"
    ],
    [
      "s",
      "how</w>"
    ],
    [
      "i",
      "d"
    ],
    [
      "gra",
      "cious</w>"
    ],
    [
      "C",
      "lar"
    ],
    [
      "Clar",
      "ence</w>"
    ],
    [
      "K",
      "ing</w>"
    ],
    [
      "c",
      "ra"
    ],
    [
      "i",
      "ght</w>"
    ],
    [
      "Mar",
      "ci"
    ],
    [
      "k",
      "ill</w>"
    ],
    [
      "c",
      "</w>"
    ],
    [
      "t",
      "le</w>"
    ],
    [
      "h",
      "or"
    ],
    [
      "b",
      "or"
    ],
    [
      "d",
      "am</w>"
    ],
    [
      "c",
      "lo"
    ],
    [
      "ev",
      "ery</w>"
    ],
    [
      "Marci",
      "us</w>"
    ],
    [
      "st",
      "ate</w>"
    ],
    [
      "la",
      "ck</w>"
    ],
    [
      "hear",
      "d</w>"
    ],
    [
      "ar",
      "d</w>"
    ],
    [
      "wo",
      "man</w>"
    ],
    [
      "b",
      "ur"
    ],
    [
      "vo",
      "i"
    ],
    [
      "E",
      "ng"
    ],
    [
      "O",
      "ur</w>"
    ],
    [
      "po",
      "se</w>"
    ],
    [
      "fri",
      "end</w>"
    ],
    [
      "fa",
      "l"
    ],
    [
      "te",
      "mp"
    ],
    [
      "or",
      "i"
    ],
    [
      "m",
      "an"
    ],
    [
      "d",
      "ev"
    ],
    [
      "g",
      "ed</w>"
    ],
    [
      "sp",
      "o"
    ],
    [
      "L",
      "o"
    ],
    [
      "st",
      "e</w>"
    ],
    [
      "k",
      "in"
    ],
    [
      "st",
      "ra"
    ],
    [
      "W",
      "ho"
    ],
    [
      "cou",
      "sin</w>"
    ],
    [
      "st",
      "a"
    ],
    [
      "e",
      "l</w>"
    ],
    [
      "sel",
      "ves</w>"
    ],
    [
      "hi",
      "ther</w>"
    ],
    [
      "s",
      "ince</w>"
    ],
    [
      "ca",
      "me</w>"
    ],
    [
      "m",
      "ind</w>"
    ],
    [
      "g",
      "et</w>"
    ],
    [
      "who",
      "m</w>"
    ],
    [
      "w",
      "el"
    ],
    [
      "lo",
      "o"
    ],
    [
      "S",
      "he</w>"
    ],
    [
      "D",
      "u"
    ],
    [
      "d",
      "ge</w>"
    ],
    [
      "un",
      "c"
    ],
    [
      "whi",
      "le</w>"
    ],
    [
      "thou",
      "s"
    ],
    [
      "ee",
      "l</w>"
    ],
    [
      "f",
      "ind</w>"
    ],
    [
      "ma",
      "kes</w>"
    ],
    [
      "of",
      "f"
    ],
    [
      "s",
      "ent</w>"
    ],
    [
      "bo",
      "y</w>"
    ],
    [
      "roy",
      "al</w>"
    ],
    [
      "c",
      "t</w>"
    ],
    [
      "bo",
      "dy</w>"
    ],
    [
      "answ",
      "er</w>"
    ],
    [
      "s",
      "ho"
    ],
    [
      "bro",
      "ke</w>"
    ],
    [
      "dou",
      "b"
    ],
    [
      "com",
      "for"
    ],
    [
      "J",
      "u"
    ],
    [
      "v",
      "y</w>"
    ],
    [
      "A",
      "ng"
    ],
    [
      "P",
      "o"
    ],
    [
      "S",
      "t"
    ],
    [
      "ey",
      "e</w>"
    ],
    [
      "fa",
      "ll</w>"
    ],
    [
      "b",
      "ring</w>"
    ],
    [
      "c",
      "la"
    ],
    [
      "es",
      "ty</w>"
    ],
    [
      "D",
      "o</w>"
    ],
    [
      "sha",
      "me</w>"
    ],
    [
      "v",
      "ir"
    ],
    [
      "ab",
      "out</w>"
    ],
    [
      "lo",
      "w"
    ],
    [
      "st",
      "ri"
    ],
    [
      "r",
      "ed</w>"
    ],
    [
      "chi",
      "ld</w>"
    ],
    [
      "shi",
      "p</w>"
    ],
    [
      "fu",
      "ll</w>"
    ],
    [
      "for",
      "tune</w>"
    ],
    [
      "Ang",
      "el"
    ],
    [
      "Angel",
      "o</w>"
    ],
    [
      "in",
      "to</w>"
    ],
    [
      "k",
      "en</w>"
    ],
    [
      "i",
      "se</w>"
    ],
    [
      "st",
      "ru"
    ],
    [
      "b",
      "ri"
    ],
    [
      "ha",
      "te</w>"
    ],
    [
      "C",
      "o"
    ],
    [
      "l",
      "k</w>"
    ],
    [
      "wi",
      "lt</w>"
    ],
    [
      "sor",
      "row</w>"
    ],
    [
      "hel",
      "p</w>"
    ],
    [
      "thous",
      "and</w>"
    ],
    [
      "fel",
      "low</w>"
    ],
    [
      "re",
      "me"
    ],
    [
      "wa",
      "r</w>"
    ],
    [
      "c",
      "re"
    ],
    [
      "N",
      "or</w>"
    ],
    [
      "la",
      "st</w>"
    ],
    [
      "Ha",
      "th</w>"
    ],
    [
      "do",
      "m</w>"
    ],
    [
      "Du",
      "ke</w>"
    ],
    [
      "vi",
      "ce</w>"
    ],
    [
      "fa",
      "u"
    ],
    [
      "so",
      "l"
    ],
    [
      "t",
      "rea"
    ],
    [
      "ou",
      "nd</w>"
    ],
    [
      "li",
      "e</w>"
    ],
    [
      "fa",
      "r</w>"
    ],
    [
      "rou",
      "gh</w>"
    ],
    [
      "an",
      "other</w>"
    ],
    [
      "d",
      "en"
    ],
    [
      "gentle",
      "man</w>"
    ],
    [
      "g",
      "ro"
    ],
    [
      "ti",
      "mes</w>"
    ],
    [
      "T",
      "y"
    ],
    [
      "tra",
      "it"
    ],
    [
      "la",
      "w</w>"
    ],
    [
      "x",
      "t</w>"
    ],
    [
      "L",
      "i"
    ],
    [
      "E",
      "ven</w>"
    ],
    [
      "d",
      "en</w>"
    ],
    [
      "ir",
      "e</w>"
    ],
    [
      "mea",
      "n</w>"
    ],
    [
      "v",
      "ere"
    ],
    [
      "do",
      "st</w>"
    ],
    [
      "happ",
      "y</w>"
    ],
    [
      "S",
      "e"
    ],
    [
      "la",
      "y</w>"
    ],
    [
      "me",
      "et</w>"
    ],
    [
      "s",
      "l"
    ],
    [
      "so",
      "vere"
    ],
    [
      "N",
      "or"
    ],
    [
      "ha",
      "s</w>"
    ],
    [
      "or",
      "s</w>"
    ],
    [
      "gra",
      "ve</w>"
    ],
    [
      "i",
      "l"
    ],
    [
      "y",
      "ing</w>"
    ],
    [
      "g",
      "re"
    ],
    [
      "pro",
      "ve</w>"
    ],
    [
      "d",
      "ar"
    ],
    [
      "gri",
      "ef</w>"
    ],
    [
      "li",
      "f"
    ],
    [
      "T",
      "o"
    ],
    [
      "si",
      "de</w>"
    ],
    [
      "A",
      "ll</w>"
    ],
    [
      "d",
      "st</w>"
    ],
    [
      "er",
      "al</w>"
    ],
    [
      "un",
      "t</w>"
    ],
    [
      "h",
      "our</w>"
    ],
    [
      "af",
      "ter</w>"
    ],
    [
      "la",
      "te</w>"
    ],
    [
      "so",
      "me"
    ],
    [
      "sp",
      "i"
    ],
    [
      "ta",
      "l</w>"
    ],
    [
      "r",
      "en</w>"
    ],
    [
      "rea",
      "dy</w>"
    ],
    [
      "des",
      "er"
    ],
    [
      "i",
      "</w>"
    ],
    [
      "pa",
      "ti"
    ],
    [
      "A",
      "re</w>"
    ],
    [
      "ho",
      "ly</w>"
    ],
    [
      "w",
      "e"
    ],
    [
      "f",
      "ur"
    ],
    [
      "re",
      "ven"
    ],
    [
      "plea",
      "se</w>"
    ],
    [
      "su",
      "n</w>"
    ],
    [
      "U",
      "pon</w>"
    ],
    [
      "mb",
      "</w>"
    ],
    [
      "I",
      "n"
    ],
    [
      "ee",
      "p"
    ],
    [
      "y",
      "ears</w>"
    ],
    [
      "m",
      "ur"
    ],
    [
      "t",
      "ch"
    ],
    [
      "ar",
      "ms</w>"
    ],
    [
      "in",
      "deed</w>"
    ],
    [
      "ea",
      "ch</w>"
    ],
    [
      "M",
      "ore</w>"
    ],
    [
      "tru",
      "th</w>"
    ],
    [
      "er",
      "ous</w>"
    ],
    [
      "S",
      "a"
    ],
    [
      "ti",
      "ons</w>"
    ],
    [
      "vir",
      "tu"
    ],
    [
      "on",
      "ly</w>"
    ],
    [
      "f",
      "la"
    ],
    [
      "wi",
      "sh</w>"
    ],
    [
      "la",
      "in</w>"
    ],
    [
      "ran",
      "ce</w>"
    ],
    [
      "ra",
      "ther</w>"
    ],
    [
      "en",
      "ough</w>"
    ],
    [
      "ma",
      "tter</w>"
    ],
    [
      "i",
      "mp"
    ],
    [
      "ea",
      "l</w>"
    ],
    [
      "de",
      "li"
    ],
    [
      "o",
      "a"
    ],
    [
      "fi",
      "ght</w>"
    ],
    [
      "S",
      "u"
    ],
    [
      "ma",
      "dam</w>"
    ],
    [
      "blo",
      "o"
    ],
    [
      "i",
      "th</w>"
    ],
    [
      "sw",
      "ear</w>"
    ],
    [
      "con",
      "f"
    ],
    [
      "li",
      "ves</w>"
    ],
    [
      "ta",
      "lk</w>"
    ],
    [
      "comfor",
      "t</w>"
    ],
    [
      "ch",
      "an"
    ],
    [
      "c",
      "ks</w>"
    ],
    [
      "W",
      "ould</w>"
    ],
    [
      "pr",
      "ou"
    ],
    [
      "sh",
      "ed</w>"
    ],
    [
      "n",
      "ed</w>"
    ],
    [
      "ju",
      "sti"
    ],
    [
      "A",
      "u"
    ],
    [
      "mi",
      "s"
    ],
    [
      "d",
      "ang"
    ],
    [
      "s",
      "ons</w>"
    ],
    [
      "en",
      "g"
    ],
    [
      "sha",
      "lt</w>"
    ],
    [
      "hi",
      "gh</w>"
    ],
    [
      "go",
      "ds</w>"
    ],
    [
      "coun",
      "try</w>"
    ],
    [
      "k",
      "ind</w>"
    ],
    [
      "of",
      "fi"
    ],
    [
      "s",
      "it</w>"
    ],
    [
      "fol",
      "low</w>"
    ],
    [
      "t",
      "ure</w>"
    ],
    [
      "fo",
      "o"
    ],
    [
      "pi",
      "ty</w>"
    ],
    [
      "la",
      "u"
    ],
    [
      "m",
      "m"
    ],
    [
      "g",
      "er</w>"
    ],
    [
      "men",
      "ts</w>"
    ],
    [
      "y",
      "i"
    ],
    [
      "nat",
      "ure</w>"
    ],
    [
      "ci",
      "ty</w>"
    ],
    [
      "bu",
      "s"
    ],
    [
      "ti",
      "es</w>"
    ],
    [
      "W",
      "ere</w>"
    ],
    [
      "wor",
      "n</w>"
    ],
    [
      "chi",
      "ld"
    ],
    [
      "ma",
      "ster</w>"
    ],
    [
      "G",
      "ive</w>"
    ],
    [
      "ra",
      "y</w>"
    ],
    [
      "sovere",
      "ign</w>"
    ],
    [
      "ur",
      "se</w>"
    ],
    [
      "Eng",
      "land</w>"
    ],
    [
      "Ty",
      "bal"
    ],
    [
      "th",
      "ers</w>"
    ],
    [
      "sol",
      "di"
    ],
    [
      "S",
      "h"
    ],
    [
      "bes",
      "eech</w>"
    ],
    [
      "go",
      "t</w>"
    ],
    [
      "bor",
      "n</w>"
    ],
    [
      "bloo",
      "dy</w>"
    ],
    [
      "A",
      "t</w>"
    ],
    [
      "t",
      "re"
    ],
    [
      "vi",
      "l"
    ],
    [
      "i",
      "m"
    ],
    [
      "Tybal",
      "t</w>"
    ],
    [
      "g",
      "es</w>"
    ],
    [
      "R",
      "e"
    ],
    [
      "lie",
      "ve</w>"
    ],
    [
      "b",
      "</w>"
    ],
    [
      "i",
      "m</w>"
    ],
    [
      "your",
      "s</w>"
    ],
    [
      "pla",
      "y</w>"
    ],
    [
      "po",
      "s"
    ],
    [
      "fal",
      "se</w>"
    ],
    [
      "ma",
      "j"
    ],
    [
      "sub",
      "j"
    ],
    [
      "pa",
      "ss</w>"
    ],
    [
      "M",
      "o"
    ],
    [
      "ll",
      "o</w>"
    ],
    [
      "B",
      "u"
    ],
    [
      "in",
      "t"
    ],
    [
      "ga",
      "inst</w>"
    ],
    [
      "t",
      "es</w>"
    ],
    [
      "w",
      "on"
    ],
    [
      "c",
      "ro"
    ],
    [
      "for",
      "m</w>"
    ],
    [
      "di",
      "sp"
    ],
    [
      "th",
      "ree</w>"
    ],
    [
      "T",
      "ake</w>"
    ],
    [
      "se",
      "en</w>"
    ],
    [
      "d",
      "ness</w>"
    ],
    [
      "A",
      "h</w>"
    ],
    [
      "hi",
      "gh"
    ],
    [
      "i",
      "us</w>"
    ],
    [
      "ne",
      "ed</w>"
    ],
    [
      "l",
      "f</w>"
    ],
    [
      "f",
      "ec"
    ],
    [
      "ar",
      "m</w>"
    ],
    [
      "t",
      "ro"
    ],
    [
      "st",
      "ran"
    ],
    [
      "pres",
      "ent</w>"
    ],
    [
      "da",
      "ys</w>"
    ],
    [
      "ere",
      "in</w>"
    ],
    [
      "fou",
      "nd</w>"
    ],
    [
      "th",
      "in"
    ],
    [
      "child",
      "ren</w>"
    ],
    [
      "di",
      "es</w>"
    ],
    [
      "P",
      "ro"
    ],
    [
      "brea",
      "th</w>"
    ],
    [
      "w",
      "ea"
    ],
    [
      "rou",
      "nd</w>"
    ],
    [
      "k",
      "i"
    ],
    [
      "ma",
      "id</w>"
    ],
    [
      "wr",
      "ong</w>"
    ],
    [
      "maj",
      "esty</w>"
    ],
    [
      "M",
      "on"
    ],
    [
      "er",
      "ing</w>"
    ],
    [
      "l",
      "es"
    ],
    [
      "prou",
      "d</w>"
    ],
    [
      "bus",
      "iness</w>"
    ],
    [
      "th",
      "ings</w>"
    ],
    [
      "justi",
      "ce</w>"
    ],
    [
      "sw",
      "ord</w>"
    ],
    [
      "c",
      "tion</w>"
    ],
    [
      "me",
      "ans</w>"
    ],
    [
      "ge",
      "ther</w>"
    ],
    [
      "than",
      "k</w>"
    ],
    [
      "unc",
      "le</w>"
    ],
    [
      "Th",
      "erefore</w>"
    ],
    [
      "B",
      "ol"
    ],
    [
      "t",
      "wi"
    ],
    [
      "Ju",
      "li"
    ],
    [
      "en",
      "s</w>"
    ],
    [
      "l",
      "in"
    ],
    [
      "at",
      "ch</w>"
    ],
    [
      "k",
      "ed</w>"
    ],
    [
      "f",
      "ly</w>"
    ],
    [
      "on",
      "d</w>"
    ],
    [
      "Lo",
      "ok</w>"
    ],
    [
      "mer",
      "cy</w>"
    ],
    [
      "trait",
      "or</w>"
    ],
    [
      "x",
      "</w>"
    ],
    [
      "C",
      "on"
    ],
    [
      "w",
      "an"
    ],
    [
      "your",
      "self</w>"
    ],
    [
      "z",
      "e</w>"
    ],
    [
      "p",
      "h"
    ],
    [
      "with",
      "in</w>"
    ],
    [
      "se",
      "l</w>"
    ],
    [
      "sl",
      "eep</w>"
    ],
    [
      "O",
      "n</w>"
    ],
    [
      "sea",
      "</w>"
    ],
    [
      "f",
      "ear"
    ],
    [
      "str",
      "ess</w>"
    ],
    [
      "C",
      "lif"
    ],
    [
      "l",
      "ear"
    ],
    [
      "sa",
      "ve</w>"
    ],
    [
      "s",
      "ca"
    ],
    [
      "un",
      "der</w>"
    ],
    [
      "b",
      "el"
    ],
    [
      "f",
      "it</w>"
    ],
    [
      "er",
      "i"
    ],
    [
      "v",
      "an"
    ],
    [
      "b",
      "at"
    ],
    [
      "t",
      "ness</w>"
    ],
    [
      "to",
      "gether</w>"
    ],
    [
      "rou",
      "ght</w>"
    ],
    [
      "see",
      "m</w>"
    ],
    [
      "su",
      "e</w>"
    ],
    [
      "sa",
      "w</w>"
    ],
    [
      "S",
      "ay</w>"
    ],
    [
      "loo",
      "ks</w>"
    ],
    [
      "W",
      "hi"
    ],
    [
      "li",
      "sh</w>"
    ],
    [
      "ll",
      "s</w>"
    ],
    [
      "on",
      "es</w>"
    ],
    [
      "bea",
      "u"
    ],
    [
      "Clif",
      "ford</w>"
    ],
    [
      "lie",
      "ge</w>"
    ],
    [
      "Bol",
      "ing"
    ],
    [
      "Boling",
      "broke</w>"
    ],
    [
      "pa",
      "s"
    ],
    [
      "th",
      "s</w>"
    ],
    [
      "ce",
      "i"
    ],
    [
      "s",
      "end</w>"
    ],
    [
      "wor",
      "thy</w>"
    ],
    [
      "to",
      "ld</w>"
    ],
    [
      "doub",
      "t</w>"
    ],
    [
      "C",
      "ori"
    ],
    [
      "p",
      "lu"
    ],
    [
      "L",
      "a"
    ],
    [
      "T",
      "ell</w>"
    ],
    [
      "f",
      "arewell</w>"
    ],
    [
      "le",
      "ft</w>"
    ],
    [
      "de",
      "m"
    ],
    [
      "o",
      "m</w>"
    ],
    [
      "Juli",
      "et</w>"
    ],
    [
      "o",
      "ver</w>"
    ],
    [
      "kno",
      "wn</w>"
    ],
    [
      "re",
      "qu"
    ],
    [
      "ir",
      "s</w>"
    ],
    [
      "at",
      "es</w>"
    ],
    [
      "m",
      "ed</w>"
    ],
    [
      "k",
      "ne"
    ],
    [
      "pur",
      "pose</w>"
    ],
    [
      "de",
      "f"
    ],
    [
      "pro",
      "mi"
    ],
    [
      "wel",
      "come</w>"
    ],
    [
      "s",
      "on"
    ],
    [
      "un",
      "der"
    ],
    [
      "hea",
      "vy</w>"
    ],
    [
      "n",
      "urse</w>"
    ],
    [
      "a",
      "ble</w>"
    ],
    [
      "in",
      "ted</w>"
    ],
    [
      "ch",
      "e"
    ],
    [
      "P",
      "ar"
    ],
    [
      "Mon",
      "ta"
    ],
    [
      "brea",
      "k</w>"
    ],
    [
      "ec",
      "u"
    ],
    [
      "ha",
      "lf</w>"
    ],
    [
      "W",
      "as</w>"
    ],
    [
      "r",
      "en"
    ],
    [
      "c",
      "ri"
    ],
    [
      "oun",
      "ds</w>"
    ],
    [
      "w",
      "re"
    ],
    [
      "w",
      "eep</w>"
    ],
    [
      "st",
      "ar"
    ],
    [
      "Who",
      "se</w>"
    ],
    [
      "la",
      "s</w>"
    ],
    [
      "sla",
      "in</w>"
    ],
    [
      "vil",
      "lain</w>"
    ],
    [
      "fou",
      "l</w>"
    ],
    [
      "ha",
      "m</w>"
    ],
    [
      "wo",
      "e</w>"
    ],
    [
      "fri",
      "ar</w>"
    ],
    [
      "a",
      "ir</w>"
    ],
    [
      "cont",
      "ent</w>"
    ],
    [
      "b",
      "ar"
    ],
    [
      "g",
      "s</w>"
    ],
    [
      "gen",
      "eral</w>"
    ],
    [
      "Th",
      "ough</w>"
    ],
    [
      "chan",
      "ge</w>"
    ],
    [
      "qu",
      "ar"
    ],
    [
      "s",
      "worn</w>"
    ],
    [
      "F",
      "arewell</w>"
    ],
    [
      "war",
      "rant</w>"
    ],
    [
      "H",
      "ar"
    ],
    [
      "ha",
      "ste</w>"
    ],
    [
      "t",
      "ou"
    ],
    [
      "g",
      "round</w>"
    ],
    [
      "ra",
      "ge</w>"
    ],
    [
      "a",
      "d</w>"
    ],
    [
      "th",
      "yself</w>"
    ],
    [
      "ces",
      "ter</w>"
    ],
    [
      "F",
      "rance</w>"
    ],
    [
      "lo",
      "ss</w>"
    ],
    [
      "rea",
      "d</w>"
    ],
    [
      "ex",
      "ecu"
    ],
    [
      "O",
      "ne</w>"
    ],
    [
      "c",
      "are</w>"
    ],
    [
      "cour",
      "se</w>"
    ],
    [
      "Sh",
      "ould</w>"
    ],
    [
      "st",
      "s</w>"
    ],
    [
      "g",
      "la"
    ],
    [
      "c",
      "en"
    ],
    [
      "Th",
      "ese</w>"
    ],
    [
      "ten",
      "der</w>"
    ],
    [
      "thin",
      "ks</w>"
    ],
    [
      "do",
      "es</w>"
    ],
    [
      "eng",
      "th</w>"
    ],
    [
      "si",
      "l"
    ],
    [
      "sp",
      "ir"
    ],
    [
      "dra",
      "w</w>"
    ],
    [
      "sa",
      "me</w>"
    ],
    [
      "with",
      "out</w>"
    ],
    [
      "M",
      "u"
    ],
    [
      "ea",
      "</w>"
    ],
    [
      "pa",
      "ir</w>"
    ],
    [
      "J",
      "o"
    ],
    [
      "A",
      "n</w>"
    ],
    [
      "ho",
      "l"
    ],
    [
      "lo",
      "st</w>"
    ],
    [
      "C",
      "lau"
    ],
    [
      "Clau",
      "di"
    ],
    [
      "Claudi",
      "o</w>"
    ],
    [
      "re",
      "turn</w>"
    ],
    [
      "ir",
      "st</w>"
    ],
    [
      "ene",
      "my</w>"
    ],
    [
      "m",
      "ou"
    ],
    [
      "comm",
      "on</w>"
    ],
    [
      "do",
      "w</w>"
    ],
    [
      "fo",
      "ot</w>"
    ],
    [
      "per",
      "son</w>"
    ],
    [
      "th",
      "i"
    ],
    [
      "sou",
      "nd</w>"
    ],
    [
      "rea",
      "son</w>"
    ],
    [
      "it",
      "self</w>"
    ],
    [
      "bani",
      "sh</w>"
    ],
    [
      "oa",
      "th</w>"
    ],
    [
      "st",
      "ings</w>"
    ],
    [
      "ch",
      "es</w>"
    ],
    [
      "st",
      "e"
    ],
    [
      "re",
      "e"
    ],
    [
      "Li",
      "ke</w>"
    ],
    [
      "D",
      "id</w>"
    ],
    [
      "fau",
      "lt</w>"
    ],
    [
      "S",
      "ome</w>"
    ],
    [
      "lo",
      "se</w>"
    ],
    [
      "t",
      "or</w>"
    ],
    [
      "fa",
      "ith</w>"
    ],
    [
      "thou",
      "ghts</w>"
    ],
    [
      "char",
      "ge</w>"
    ],
    [
      "be",
      "lieve</w>"
    ],
    [
      "M",
      "ay</w>"
    ],
    [
      "ld",
      "st</w>"
    ],
    [
      "ta",
      "tion</w>"
    ],
    [
      "P",
      "ray</w>"
    ],
    [
      "ar",
      "y</w>"
    ],
    [
      "en",
      "ty</w>"
    ],
    [
      "H",
      "er</w>"
    ],
    [
      "w",
      "in"
    ],
    [
      "con",
      "su"
    ],
    [
      "n",
      "ear</w>"
    ],
    [
      "si",
      "ght</w>"
    ],
    [
      "si",
      "ster</w>"
    ],
    [
      "G",
      "lou"
    ],
    [
      "Monta",
      "gue</w>"
    ],
    [
      "w",
      "al"
    ],
    [
      "k",
      "ing"
    ],
    [
      "th",
      "rough</w>"
    ],
    [
      "sa",
      "ys</w>"
    ],
    [
      "stran",
      "ge</w>"
    ],
    [
      "al",
      "one</w>"
    ],
    [
      "c",
      "er"
    ],
    [
      "M",
      "ad"
    ],
    [
      "m",
      "ble</w>"
    ],
    [
      "h",
      "ours</w>"
    ],
    [
      "u",
      "mb"
    ],
    [
      "F",
      "or"
    ],
    [
      "d",
      "eep</w>"
    ],
    [
      "A",
      "n"
    ],
    [
      "f",
      "ree</w>"
    ],
    [
      "b",
      "la"
    ],
    [
      "des",
      "ire</w>"
    ],
    [
      "ser",
      "vice</w>"
    ],
    [
      "k",
      "e"
    ],
    [
      "go",
      "o"
    ],
    [
      "so",
      "m</w>"
    ],
    [
      "hea",
      "ven"
    ],
    [
      "b",
      "ir"
    ],
    [
      "re",
      "l</w>"
    ],
    [
      "ing",
      "ham</w>"
    ],
    [
      "Ca",
      "mi"
    ],
    [
      "Cami",
      "llo</w>"
    ],
    [
      "o",
      "b"
    ],
    [
      "fir",
      "e</w>"
    ],
    [
      "su",
      "c"
    ],
    [
      "Mad",
      "am</w>"
    ],
    [
      "pra",
      "y"
    ],
    [
      "hor",
      "se</w>"
    ],
    [
      "Wi",
      "th"
    ],
    [
      "st",
      "ands</w>"
    ],
    [
      "kno",
      "ws</w>"
    ],
    [
      "w",
      "ear</w>"
    ],
    [
      "m",
      "el"
    ],
    [
      "stra",
      "ight</w>"
    ],
    [
      "fear",
      "ful</w>"
    ],
    [
      "Ha",
      "stings</w>"
    ],
    [
      "Glou",
      "cester</w>"
    ],
    [
      "Bu",
      "ck"
    ],
    [
      "Buck",
      "ingham</w>"
    ],
    [
      "fol",
      "k</w>"
    ],
    [
      "F",
      "irst</w>"
    ],
    [
      "con",
      "d</w>"
    ],
    [
      "yi",
      "eld</w>"
    ],
    [
      "A",
      "gainst</w>"
    ],
    [
      "rep",
      "ort</w>"
    ],
    [
      "lo",
      "ved</w>"
    ],
    [
      "mi",
      "es</w>"
    ],
    [
      "cour",
      "t</w>"
    ],
    [
      "y",
      "e</w>"
    ],
    [
      "Ha",
      "d</w>"
    ],
    [
      "A",
      "way</w>"
    ],
    [
      "h",
      "ell</w>"
    ],
    [
      "D",
      "i"
    ],
    [
      "f",
      "ea"
    ],
    [
      "voi",
      "ces</w>"
    ],
    [
      "so",
      "on</w>"
    ],
    [
      "co",
      "ld</w>"
    ],
    [
      "ki",
      "ss</w>"
    ],
    [
      "mi",
      "gh"
    ],
    [
      "mar",
      "ry</w>"
    ],
    [
      "L",
      "an"
    ],
    [
      "tt",
      "ing</w>"
    ],
    [
      "st",
      "or"
    ],
    [
      "po",
      "int</w>"
    ],
    [
      "res",
      "ol"
    ],
    [
      "reven",
      "ge</w>"
    ],
    [
      "s",
      "ci"
    ],
    [
      "in",
      "stru"
    ],
    [
      "mar",
      "k</w>"
    ],
    [
      "c",
      "ry</w>"
    ],
    [
      "b",
      "un"
    ],
    [
      "t",
      "est</w>"
    ],
    [
      "b",
      "rought</w>"
    ],
    [
      "i",
      "ls</w>"
    ],
    [
      "d",
      "ro"
    ],
    [
      "m",
      "ing</w>"
    ],
    [
      "ser",
      "ve</w>"
    ],
    [
      "ll",
      "ing</w>"
    ],
    [
      "si",
      "g"
    ],
    [
      "sp",
      "e"
    ],
    [
      "tw",
      "enty</w>"
    ],
    [
      "n",
      "er</w>"
    ],
    [
      "st",
      "an"
    ],
    [
      "cla",
      "im</w>"
    ],
    [
      "pa",
      "st</w>"
    ],
    [
      "eep",
      "ing</w>"
    ],
    [
      "l",
      "ong"
    ],
    [
      "high",
      "ness</w>"
    ],
    [
      "w",
      "d</w>"
    ],
    [
      "drea",
      "m</w>"
    ],
    [
      "Nor",
      "folk</w>"
    ],
    [
      "S",
      "p"
    ],
    [
      "h",
      "un"
    ],
    [
      "wor",
      "k</w>"
    ],
    [
      "ta",
      "ble</w>"
    ],
    [
      "pre",
      "t"
    ],
    [
      "b",
      "er"
    ],
    [
      "ce",
      "ive</w>"
    ],
    [
      "reme",
      "mber</w>"
    ],
    [
      "wi",
      "se</w>"
    ],
    [
      "h",
      "an"
    ],
    [
      "d",
      "ers</w>"
    ],
    [
      "c",
      "ru"
    ],
    [
      "fi",
      "eld</w>"
    ],
    [
      "T",
      "ill</w>"
    ],
    [
      "war",
      "ds</w>"
    ],
    [
      "pati",
      "ence</w>"
    ],
    [
      "Th",
      "us</w>"
    ],
    [
      "ea",
      "se</w>"
    ],
    [
      "lo",
      "ws</w>"
    ],
    [
      "B",
      "o"
    ],
    [
      "e",
      "w"
    ],
    [
      "h",
      "ang"
    ],
    [
      "pr",
      "inc"
    ],
    [
      "for",
      "ce</w>"
    ],
    [
      "lo",
      "ves</w>"
    ],
    [
      "st",
      "u"
    ],
    [
      "co",
      "l"
    ],
    [
      "e",
      "ither</w>"
    ],
    [
      "i",
      "sh</w>"
    ],
    [
      "coun",
      "sel</w>"
    ],
    [
      "i",
      "es</w>"
    ],
    [
      "C",
      "an</w>"
    ],
    [
      "mi",
      "stress</w>"
    ],
    [
      "mar",
      "ried</w>"
    ],
    [
      "pri",
      "son</w>"
    ],
    [
      "d",
      "es</w>"
    ],
    [
      "ex",
      "c"
    ],
    [
      "a",
      "tion</w>"
    ],
    [
      "t",
      "in"
    ],
    [
      "ti",
      "z"
    ],
    [
      "ene",
      "mies</w>"
    ],
    [
      "ri",
      "ch</w>"
    ],
    [
      "ere",
      "of</w>"
    ],
    [
      "fi",
      "di"
    ],
    [
      "m",
      "our</w>"
    ],
    [
      "ch",
      "ance</w>"
    ],
    [
      "you",
      "th</w>"
    ],
    [
      "plu",
      "ck</w>"
    ],
    [
      "op",
      "en</w>"
    ],
    [
      "hear",
      "ts</w>"
    ],
    [
      "spir",
      "it</w>"
    ],
    [
      "ec",
      "ts</w>"
    ],
    [
      "c",
      "tor"
    ],
    [
      "su",
      "it</w>"
    ],
    [
      "ent",
      "ly</w>"
    ],
    [
      "lo",
      "ving</w>"
    ],
    [
      "rea",
      "t</w>"
    ],
    [
      "sa",
      "ke</w>"
    ],
    [
      "s",
      "cor"
    ],
    [
      "t",
      "y"
    ],
    [
      "g",
      "lor"
    ],
    [
      "ju",
      "st</w>"
    ],
    [
      "P",
      "e"
    ],
    [
      "Lan",
      "ca"
    ],
    [
      "Lanca",
      "ster</w>"
    ],
    [
      "beau",
      "ty</w>"
    ],
    [
      "f",
      "ar"
    ],
    [
      "fu",
      "l"
    ],
    [
      "e",
      "mp"
    ],
    [
      "v",
      "e"
    ],
    [
      "S",
      "</w>"
    ],
    [
      "deli",
      "ver</w>"
    ],
    [
      "f",
      "f</w>"
    ],
    [
      "th",
      "ri"
    ],
    [
      "pa",
      "le</w>"
    ],
    [
      "v",
      "al"
    ],
    [
      "str",
      "ength</w>"
    ],
    [
      "g",
      "ates</w>"
    ],
    [
      "i",
      "son</w>"
    ],
    [
      "as",
      "k</w>"
    ],
    [
      "st",
      "ing</w>"
    ],
    [
      "some",
      "thing</w>"
    ],
    [
      "tou",
      "ch</w>"
    ],
    [
      "s",
      "y</w>"
    ],
    [
      "th",
      "r"
    ],
    [
      "li",
      "ps</w>"
    ],
    [
      "n",
      "or"
    ],
    [
      "ti",
      "tle</w>"
    ],
    [
      "la",
      "w"
    ],
    [
      "bo",
      "som</w>"
    ],
    [
      "heaven",
      "s</w>"
    ],
    [
      "he",
      "ir</w>"
    ],
    [
      "can",
      "st</w>"
    ],
    [
      "sa",
      "ti"
    ],
    [
      "Ma",
      "ster</w>"
    ],
    [
      "lear",
      "n</w>"
    ],
    [
      "i",
      "ts</w>"
    ],
    [
      "ent",
      "ed</w>"
    ],
    [
      "in",
      "ter"
    ],
    [
      "ne",
      "xt</w>"
    ],
    [
      "gi",
      "ven</w>"
    ],
    [
      "mi",
      "ty</w>"
    ],
    [
      "b",
      "our</w>"
    ],
    [
      "Se",
      "e</w>"
    ],
    [
      "st",
      "y</w>"
    ],
    [
      "Au",
      "fidi"
    ],
    [
      "stri",
      "ke</w>"
    ],
    [
      "the",
      "m"
    ],
    [
      "them",
      "selves</w>"
    ],
    [
      "bea",
      "t</w>"
    ],
    [
      "o",
      "be"
    ],
    [
      "dr",
      "ed</w>"
    ],
    [
      "sou",
      "ls</w>"
    ],
    [
      "ou",
      "ldst</w>"
    ],
    [
      "plea",
      "sure</w>"
    ],
    [
      "Mo",
      "st</w>"
    ],
    [
      "c",
      "lou"
    ],
    [
      "di",
      "sh"
    ],
    [
      "p",
      "en"
    ],
    [
      "wo",
      "men</w>"
    ],
    [
      "t",
      "ted</w>"
    ],
    [
      "s",
      "le"
    ],
    [
      "po",
      "sed</w>"
    ],
    [
      "tw",
      "een</w>"
    ],
    [
      "ti",
      "ve</w>"
    ],
    [
      "fur",
      "ther</w>"
    ],
    [
      "su",
      "ff"
    ],
    [
      "be",
      "come</w>"
    ],
    [
      "al",
      "ready</w>"
    ],
    [
      "u",
      "sur"
    ],
    [
      "v",
      "ers</w>"
    ],
    [
      "i",
      "ce</w>"
    ],
    [
      "mar",
      "ri"
    ],
    [
      "g",
      "ran"
    ],
    [
      "Aufidi",
      "us</w>"
    ],
    [
      "mo",
      "ve</w>"
    ],
    [
      "e",
      "mb"
    ],
    [
      "see",
      "k</w>"
    ],
    [
      "is",
      "sue</w>"
    ],
    [
      "foo",
      "l</w>"
    ],
    [
      "m",
      "et</w>"
    ],
    [
      "w",
      "ind</w>"
    ],
    [
      "fa",
      "st</w>"
    ],
    [
      "low",
      "ers</w>"
    ],
    [
      "to",
      "ok</w>"
    ],
    [
      "e",
      "p"
    ],
    [
      "W",
      "el"
    ],
    [
      "ch",
      "ee"
    ],
    [
      "s",
      "car"
    ],
    [
      "c",
      "rea"
    ],
    [
      "P",
      "er"
    ],
    [
      "i",
      "ous</w>"
    ],
    [
      "Ri",
      "ch"
    ],
    [
      "H",
      "ere"
    ],
    [
      "c",
      "ess</w>"
    ],
    [
      "li",
      "ty</w>"
    ],
    [
      "su",
      "pp"
    ],
    [
      "in",
      "ts</w>"
    ],
    [
      "hon",
      "est</w>"
    ],
    [
      "str",
      "ong</w>"
    ],
    [
      "st",
      "ers</w>"
    ],
    [
      "i",
      "gh"
    ],
    [
      "cur",
      "se</w>"
    ],
    [
      "re",
      "ma"
    ],
    [
      "s",
      "mi"
    ],
    [
      "in",
      "f"
    ],
    [
      "Th",
      "e"
    ],
    [
      "tri",
      "bun"
    ],
    [
      "V",
      "ol"
    ],
    [
      "comp",
      "any</w>"
    ],
    [
      "Be",
      "ing</w>"
    ],
    [
      "B",
      "es"
    ],
    [
      "S",
      "ince</w>"
    ],
    [
      "k",
      "ings</w>"
    ],
    [
      "b",
      "ound</w>"
    ],
    [
      "m",
      "p</w>"
    ],
    [
      "t",
      "was</w>"
    ],
    [
      "p",
      "es</w>"
    ],
    [
      "fo",
      "e</w>"
    ],
    [
      "t",
      "a</w>"
    ],
    [
      "w",
      "ounds</w>"
    ],
    [
      "p",
      "er</w>"
    ],
    [
      "an",
      "c"
    ],
    [
      "tt",
      "ers</w>"
    ],
    [
      "cei",
      "ved</w>"
    ],
    [
      "u",
      "mp"
    ],
    [
      "kno",
      "w"
    ],
    [
      "S",
      "o"
    ],
    [
      "c",
      "ut</w>"
    ],
    [
      "M",
      "er"
    ],
    [
      "sa",
      "d</w>"
    ],
    [
      "k",
      "new</w>"
    ],
    [
      "soldi",
      "ers</w>"
    ],
    [
      "A",
      "las</w>"
    ],
    [
      "To",
      "wer</w>"
    ],
    [
      "gu",
      "il"
    ],
    [
      "Rich",
      "mon"
    ],
    [
      "Mar",
      "ry</w>"
    ],
    [
      "w",
      "er"
    ],
    [
      "Here",
      "ford</w>"
    ],
    [
      "el",
      "s</w>"
    ],
    [
      "el",
      "l"
    ],
    [
      "ru",
      "n</w>"
    ],
    [
      "Be",
      "fore</w>"
    ],
    [
      "virtu",
      "e</w>"
    ],
    [
      "l",
      "ts</w>"
    ],
    [
      "ea",
      "t</w>"
    ],
    [
      "p",
      "or"
    ],
    [
      "bat",
      "tle</w>"
    ],
    [
      "A",
      "R"
    ],
    [
      "S",
      "i"
    ],
    [
      "li",
      "ant</w>"
    ],
    [
      "F",
      "a"
    ],
    [
      "he",
      "ld</w>"
    ],
    [
      "al",
      "ong</w>"
    ],
    [
      "G",
      "re"
    ],
    [
      "tt",
      "er"
    ],
    [
      "ur",
      "y</w>"
    ],
    [
      "dang",
      "erous</w>"
    ],
    [
      "d",
      "d"
    ],
    [
      "d",
      "are</w>"
    ],
    [
      "t",
      "were</w>"
    ],
    [
      "Cori",
      "ol"
    ],
    [
      "Coriol",
      "an"
    ],
    [
      "Coriolan",
      "us</w>"
    ],
    [
      "mor",
      "ning</w>"
    ],
    [
      "pos",
      "s"
    ],
    [
      "te",
      "ous</w>"
    ],
    [
      "en",
      "ter</w>"
    ],
    [
      "mor",
      "tal</w>"
    ],
    [
      "b",
      "lack</w>"
    ],
    [
      "with",
      "al</w>"
    ],
    [
      "Un",
      "less</w>"
    ],
    [
      "pres",
      "ence</w>"
    ],
    [
      "a",
      "bo"
    ],
    [
      "fi",
      "ed</w>"
    ],
    [
      "ra",
      "h</w>"
    ],
    [
      "du",
      "ty</w>"
    ],
    [
      "Mar",
      "gar"
    ],
    [
      "Margar",
      "et</w>"
    ],
    [
      "Richmon",
      "d</w>"
    ],
    [
      "a",
      "unt</w>"
    ],
    [
      "L",
      "on"
    ],
    [
      "sati",
      "s"
    ],
    [
      "marri",
      "age</w>"
    ],
    [
      "ra",
      "l</w>"
    ],
    [
      "C",
      "h"
    ],
    [
      "t",
      "ers</w>"
    ],
    [
      "s",
      "ly</w>"
    ],
    [
      "war",
      "s</w>"
    ],
    [
      "ta",
      "le</w>"
    ],
    [
      "b",
      "ear"
    ],
    [
      "The",
      "ir</w>"
    ],
    [
      "M",
      "ake</w>"
    ],
    [
      "fa",
      "v"
    ],
    [
      "f",
      "ra"
    ],
    [
      "mo",
      "ck</w>"
    ],
    [
      "f",
      "ter</w>"
    ],
    [
      "her",
      "d</w>"
    ],
    [
      "d",
      "den</w>"
    ],
    [
      "l",
      "st</w>"
    ],
    [
      "ne",
      "ither</w>"
    ],
    [
      "ba",
      "d</w>"
    ],
    [
      "comm",
      "and</w>"
    ],
    [
      "wor",
      "th</w>"
    ],
    [
      "ga",
      "ve</w>"
    ],
    [
      "ci",
      "ent</w>"
    ],
    [
      "twi",
      "xt</w>"
    ],
    [
      "voi",
      "ce</w>"
    ],
    [
      "res",
      "p"
    ],
    [
      "ho",
      "od</w>"
    ],
    [
      "ma",
      "y"
    ],
    [
      "thr",
      "one</w>"
    ],
    [
      "Y",
      "</w>"
    ],
    [
      "mur",
      "der</w>"
    ],
    [
      "Lon",
      "don</w>"
    ],
    [
      "subj",
      "ect</w>"
    ],
    [
      "ti",
      "o</w>"
    ],
    [
      "s",
      "ma"
    ],
    [
      "le",
      "dge</w>"
    ],
    [
      "be",
      "tween</w>"
    ],
    [
      "Sp",
      "eak</w>"
    ],
    [
      "ac",
      "cu"
    ],
    [
      "d",
      "eeds</w>"
    ],
    [
      "T",
      "ru"
    ],
    [
      "sp",
      "ea"
    ],
    [
      "pla",
      "in</w>"
    ],
    [
      "Be",
      "cause</w>"
    ],
    [
      "for",
      "e"
    ],
    [
      "van",
      "ta"
    ],
    [
      "gu",
      "es</w>"
    ],
    [
      "bo",
      "ld</w>"
    ],
    [
      "re",
      "w</w>"
    ],
    [
      "O",
      "n"
    ],
    [
      "go",
      "es</w>"
    ],
    [
      "M",
      "e"
    ],
    [
      "u",
      "ght</w>"
    ],
    [
      "w",
      "ant</w>"
    ],
    [
      "spo",
      "ke</w>"
    ],
    [
      "bra",
      "ve</w>"
    ],
    [
      "en",
      "d"
    ],
    [
      "than",
      "ks</w>"
    ],
    [
      "qui",
      "ck"
    ],
    [
      "fa",
      "ir"
    ],
    [
      "dev",
      "il</w>"
    ],
    [
      "po",
      "ison</w>"
    ],
    [
      "l",
      "th</w>"
    ],
    [
      "en",
      "ch</w>"
    ],
    [
      "g",
      "rant</w>"
    ],
    [
      "consu",
      "l</w>"
    ],
    [
      "brea",
      "st</w>"
    ],
    [
      "hea",
      "ds</w>"
    ],
    [
      "s",
      "k"
    ],
    [
      "wi",
      "t</w>"
    ],
    [
      "dish",
      "on"
    ],
    [
      "be",
      "hold</w>"
    ],
    [
      "L",
      "est</w>"
    ],
    [
      "f",
      "lo"
    ],
    [
      "ma",
      "d</w>"
    ],
    [
      "bl",
      "es"
    ],
    [
      "ch",
      "ang"
    ],
    [
      "or",
      "ge</w>"
    ],
    [
      "or",
      "der</w>"
    ],
    [
      "Par",
      "is</w>"
    ],
    [
      "on",
      "a</w>"
    ],
    [
      "be",
      "l</w>"
    ],
    [
      "I",
      "sa"
    ],
    [
      "T",
      "ran"
    ],
    [
      "of",
      "ten</w>"
    ],
    [
      "in",
      "ed</w>"
    ],
    [
      "=",
      "</w>"
    ],
    [
      "ll",
      "ed</w>"
    ],
    [
      "ee",
      "ps</w>"
    ],
    [
      "ap",
      "pro"
    ],
    [
      "D",
      "o"
    ],
    [
      "mi",
      "ser"
    ],
    [
      "o",
      "p</w>"
    ],
    [
      "E",
      "re</w>"
    ],
    [
      "th",
      "row</w>"
    ],
    [
      "Su",
      "ch</w>"
    ],
    [
      "wor",
      "se</w>"
    ],
    [
      "ck",
      "ed</w>"
    ],
    [
      "C",
      "all</w>"
    ],
    [
      "tru",
      "st</w>"
    ],
    [
      "di",
      "re"
    ],
    [
      "o",
      "w"
    ],
    [
      "f",
      "an"
    ],
    [
      "Mu",
      "st</w>"
    ],
    [
      "requ",
      "est</w>"
    ],
    [
      "sa",
      "ge</w>"
    ],
    [
      "ou",
      "ra"
    ],
    [
      "Y",
      "es</w>"
    ],
    [
      "vi",
      "ctor"
    ],
    [
      "offi",
      "ce</w>"
    ],
    [
      "for",
      "get</w>"
    ],
    [
      "ha",
      "ving</w>"
    ],
    [
      "R",
      "u"
    ],
    [
      "wa",
      "ter</w>"
    ],
    [
      "t",
      "es"
    ],
    [
      "law",
      "ful</w>"
    ],
    [
      "sh",
      "ment</w>"
    ],
    [
      "k",
      "n"
    ],
    [
      "mu",
      "si"
    ],
    [
      "quar",
      "rel</w>"
    ],
    [
      "see",
      "ms</w>"
    ],
    [
      "G",
      "e"
    ],
    [
      "Ge",
      "orge</w>"
    ],
    [
      "migh",
      "ty</w>"
    ],
    [
      "se",
      "cre"
    ],
    [
      "Nor",
      "th"
    ],
    [
      "s",
      "man</w>"
    ],
    [
      "a",
      "ch</w>"
    ],
    [
      "di",
      "g"
    ],
    [
      "o",
      "ver"
    ],
    [
      "al",
      "ly</w>"
    ],
    [
      "fau",
      "lts</w>"
    ],
    [
      "t",
      "r"
    ],
    [
      "f",
      "eel</w>"
    ],
    [
      "af",
      "fec"
    ],
    [
      "s",
      "ev"
    ],
    [
      "tribun",
      "es</w>"
    ],
    [
      "wi",
      "s"
    ],
    [
      "va",
      "liant</w>"
    ],
    [
      "id",
      "es</w>"
    ],
    [
      "e",
      "ts</w>"
    ],
    [
      "pr",
      "ess</w>"
    ],
    [
      "e",
      "ther</w>"
    ],
    [
      "th",
      "er"
    ],
    [
      "d",
      "ru"
    ],
    [
      "bu",
      "y</w>"
    ],
    [
      "h",
      "ur"
    ],
    [
      "gentle",
      "men</w>"
    ],
    [
      "har",
      "m</w>"
    ],
    [
      "O",
      "R"
    ],
    [
      "w",
      "ri"
    ],
    [
      "princ",
      "ely</w>"
    ],
    [
      "go",
      "ld</w>"
    ],
    [
      "H",
      "er"
    ],
    [
      "Wel",
      "come</w>"
    ],
    [
      "tri",
      "ump"
    ],
    [
      "la",
      "r</w>"
    ],
    [
      "t",
      "on</w>"
    ],
    [
      "f",
      "les"
    ],
    [
      "di",
      "v"
    ],
    [
      "t",
      "rou"
    ],
    [
      "su",
      "mm"
    ],
    [
      "temp",
      "t</w>"
    ],
    [
      "c",
      "ure</w>"
    ],
    [
      "s",
      "ent"
    ],
    [
      "spe",
      "ed</w>"
    ],
    [
      "ear",
      "ly</w>"
    ],
    [
      "dr",
      "un"
    ],
    [
      "di",
      "dst</w>"
    ],
    [
      "pro",
      "vo"
    ],
    [
      "sw",
      "ee"
    ],
    [
      "O",
      "x"
    ],
    [
      "a",
      "m"
    ],
    [
      "nat",
      "u"
    ],
    [
      "E",
      "n"
    ],
    [
      "wa",
      "ys</w>"
    ],
    [
      "ce",
      "ed</w>"
    ],
    [
      "i",
      "ty</w>"
    ],
    [
      "pret",
      "ty</w>"
    ],
    [
      "tru",
      "mp"
    ],
    [
      "s",
      "wi"
    ],
    [
      "t",
      "end</w>"
    ],
    [
      "th",
      "ence</w>"
    ],
    [
      "app",
      "ear</w>"
    ],
    [
      "no",
      "b"
    ],
    [
      "La",
      "dy</w>"
    ],
    [
      "w",
      "ing</w>"
    ],
    [
      "pray",
      "ers</w>"
    ],
    [
      "bri",
      "ef</w>"
    ],
    [
      "b",
      "r"
    ],
    [
      "gu",
      "i"
    ],
    [
      "sh",
      "ep"
    ],
    [
      "mer",
      "ry</w>"
    ],
    [
      "T",
      "ho"
    ],
    [
      "A",
      "l"
    ],
    [
      "qu",
      "a"
    ],
    [
      "u",
      "e</w>"
    ],
    [
      "pri",
      "son"
    ],
    [
      "re",
      "ver"
    ],
    [
      "an",
      "cient</w>"
    ],
    [
      "Who",
      "m</w>"
    ],
    [
      "fles",
      "h</w>"
    ],
    [
      "d",
      "g"
    ],
    [
      "la",
      "ce</w>"
    ],
    [
      "f",
      "re"
    ],
    [
      "v",
      "ow</w>"
    ],
    [
      "ca",
      "se</w>"
    ],
    [
      "po",
      "st</w>"
    ],
    [
      "d",
      "ful</w>"
    ],
    [
      "Sa",
      "int</w>"
    ],
    [
      "st",
      "le</w>"
    ],
    [
      "sla",
      "ughter</w>"
    ],
    [
      "go",
      "ver"
    ],
    [
      "North",
      "umb"
    ],
    [
      "Northumb",
      "er"
    ],
    [
      "E",
      "x"
    ],
    [
      "Ox",
      "ford</w>"
    ],
    [
      "L",
      "u"
    ],
    [
      "Bo",
      "he"
    ],
    [
      "Bohe",
      "mi"
    ],
    [
      "Po",
      "mp"
    ],
    [
      "Pomp",
      "ey</w>"
    ],
    [
      "z",
      "ed</w>"
    ],
    [
      "in",
      "ing</w>"
    ],
    [
      "ful",
      "ly</w>"
    ],
    [
      "mp",
      "le</w>"
    ],
    [
      "li",
      "on</w>"
    ],
    [
      "tiz",
      "ens</w>"
    ],
    [
      "coun",
      "t</w>"
    ],
    [
      "E",
      "N"
    ]
  ]
}